conv_37_param_0 3342.599121 4533.263672 2576.802490 6048.744141 6605.612793 4945.378418 5301.319824 6253.247070 7359.038086 5665.808105 5808.145020 5053.474121 12312.236328 5254.464844 4921.982422 2592.857422 6563.937012 2698.791260 1801.530762 4436.605469 9973.723633 13148.613281 5585.954590 3310.688965 3213.541260 2964.056885 5208.430664 4833.375000 4942.441895 4555.594727 7346.047852 5159.995117 6889.960449 5314.860840 3903.879883 4001.476807 4176.152344 5172.822754 6833.392578 9937.996094 5450.604004 4394.441406 11134.544922 7206.123047 8072.814941 7023.689453 4199.330078 6930.118164 5153.604980 4056.077881 2271.580811 2567.264648 6272.096680 7424.685059 5291.208984 6988.305664 6248.552734 4702.300781 2181.098633 4933.652832 3925.977295 4064.000000 2280.293701 4496.527344 4788.879395 5169.609863 4568.096680 4408.406738 14215.323242 19255.226562 4216.348633 6579.503418 10767.234375 6970.747070 5241.229004 6197.373047 4939.508789 10562.274414 1893.328491 4575.630371 4533.263672 4176.152344 5949.300781 10384.369141 6018.128906 5314.860840 7212.367188 3124.276367 3666.551514 3800.489502 5271.103027 6456.999023 3911.218018 2730.666748 5974.926270 6953.276367 4766.937012 5720.324219 2883.947266 4689.054688 2728.875977 5237.930664 9022.299805 6935.893555 19322.279297 33493.246094 5848.961426 5418.666504 5763.900391 3059.952881 4176.152344 9362.286133 9315.133789 6658.457520 4334.933105 4153.229492 2655.734619 4443.711914 5747.978027 2938.937744 4822.173828 5352.458008 10003.692383 5352.458008 6093.024902 3776.348389 6412.228027 5029.046387 
convdw_382_param_0 1716.805298 1270.310181 913.418762 911.019287 2425.137451 1039.864014 767.244812 1014.019470 1946.462158 1195.843628 1125.347778 1092.266724 2290.333496 1189.010254 923.964478 791.768616 10131.554688 971.413635 4805.468750 1718.222900 2147.335449 2556.226074 912.617554 1296.428711 1281.261108 1027.032593 1099.771729 1188.331299 1600.590820 1496.955444 2612.389160 1851.217041 2617.318359 2136.312012 1182.254517 1317.775757 866.264771 858.402649 3164.666260 2808.053955 859.821472 1133.315918 2106.040527 2711.098389 2265.397949 2171.991699 765.551147 2322.285645 1158.556763 1070.353882 6142.488770 1013.032104 988.018982 3599.944580 1006.174072 1195.843628 914.221436 1217.535400 989.899170 1154.058838 1213.983643 1480.973633 7987.593262 9181.546875 1006.174072 761.628113 836.994385 1358.203613 1784.535156 187430.187500 1357.317627 939.822937 2171.991699 1026.525879 1155.982178 1378.905273 1384.409790 3315.964844 9594.319336 1104.441650 2225.420410 895.339050 1206.242310 34517.664062 2514.523193 950.990845 1815.678833 899.986145 1741.228394 1814.095947 951.860962 1809.363525 2036.973022 792.371643 1579.930176 1844.652466 1143.279175 1284.424683 1697.200684 1076.444946 877.220886 916.637878 4357.629395 2388.941406 1406.874878 49285.402344 1787.601318 712.104065 882.429199 1284.424683 1485.202026 2228.996338 1979.798340 1081.480225 1010.081543 1268.760986 1511.087891 1474.676147 2198.381348 852.773743 725.006287 869.886292 2918.328125 1006.174072 3715.657227 819.200012 1024.504150 1216.112183 
linear_82_param_0 1389.958618 2627.232422 1210.452637 1187.652954 1364.437988 2026.064209 1423.233887 1728.212646 1568.024170 697.308289 1977.916382 1910.714478 1587.160889 1715.389893 2026.064209 877.961182 1379.819580 1760.379028 1231.952637 32559.695312 26359.689453 1204.845337 2618.965332 13666.785156 2238.588379 1404.974976 1519.918213 1721.065308 1396.488647 911.817688 2419.497559 1527.729858 875.007568 776.405945 1187.652954 785.788513 9890.756836 900.765381 1254.230225 1839.759521 1522.141968 1289.199463 1603.057007 1431.064697 2170.858643 1688.935059 2928.596680 1417.416870 1229.768311 2887.949951 1260.307739 1042.468994 2864.099121 763.864929 1553.971680 2848.416260 1847.928955 2439.352783 1663.283813 1996.898315 869.886292 1416.452026 971.413635 2320.990479 1168.314453 779.313843 2234.981689 858.402649 1099.190674 1881.345337 1563.311768 2914.240967 915.830994 1315.276855 1541.309570 1199.981567 1186.975464 2173.125732 2158.473145 1502.359619 1917.758545 618.539856 2439.352783 1750.015137 1233.413208 1396.488647 1240.028564 1354.666626 5010.880371 1353.785278 2226.611084 2277.797363 2109.242676 1884.753662 1970.424194 1979.798340 1844.652466 1282.050537 1241.508301 1781.479492 1828.442871 2168.596191 1177.571045 2487.469238 1739.772583 2006.526489 1310.307251 1741.228394 1286.012329 1533.358887 2578.398926 1227.591797 3347.977539 806.499207 1647.480591 1728.212646 1473.631714 2297.921631 1332.117798 864.824585 1657.982422 1221.108032 1164.391724 3615.583008 896.110229 2499.421143 1775.399292 1541.309570 2445.085693 3422.315674 1889.889160 1754.441772 1536.756226 1884.753662 982.421143 768.946045 957.996338 1970.424194 2247.049561 1900.244751 884.680298 1438.982056 1095.141113 1944.642944 1123.524780 1529.976440 1577.534546 805.250793 2586.411377 538.501038 732.664795 901.545898 1964.842285 2249.479004 1153.419067 3208.585938 1123.524780 1368.026245 2204.203369 1125.956665 1598.132080 598.265686 1342.430908 3013.422119 869.886292 1615.503052 1750.015137 1469.468872 1274.199585 3094.078857 1854.516968 2156.236328 1471.547363 1792.220459 1564.487183 1833.275757 2920.376221 1485.202026 1695.817383 1241.508301 1184.273193 1236.344604 1433.035767 2170.858643 1092.840332 1572.764893 1318.610840 1644.875854 1684.832397 1592.018311 1655.344482 2219.485840 1277.328369 1506.711060 1440.975098 1115.095337 909.426575 1315.276855 1744.147583 1951.939941 2200.706543 2161.836914 1541.309570 1340.701050 1711.157837 1258.782837 2044.980835 246.070007 1619.274658 2182.242188 1718.222900 1817.264648 1352.905029 1167.003906 1245.968872 3263.949707 1102.685791 1039.864014 1359.979126 975.055298 1506.711060 1199.981567 2674.509033 2304.283447 1006.174072 682.666687 2097.548340 1351.148071 1219.676392 1220.391846 1886.462402 1416.452026 1820.444458 1810.938232 1081.480225 1587.160889 2251.913330 1573.954590 1180.912598 2030.017578 983.349731 1410.690186 1769.360596 1937.400391 1338.114502 1650.093628 2114.601562 832.973572 2309.398438 1572.764893 1339.837769 1584.743286 1861.152100 1996.898315 1568.024170 1491.589966 1500.193237 1559.796143 1183.599487 5902.888184 1077.559814 1212.568726 1346.775391 1240.768066 1402.134766 1699.973877 2405.512207 1227.591797 1393.682495 1294.010010 1516.594727 1377.080078 1386.254517 1932.003662 879.445496 1161.142822 2315.824219 1864.487427 4067.972656 3433.610596 1905.465210 2584.804932 1190.370728 1338.975586 1786.066895 1471.547363 1898.510986 2702.296143 1491.589966 1545.890015 1672.643066 2505.440186 2102.847900 587.787598 818.555481 2545.281982 1159.202271 1130.237915 958.879272 18640.699219 1057.838379 1033.151978 889.977783 1519.918213 2014.296265 3241.071533 1563.311768 2528.272217 1678.038696 1895.052856 1585.951172 2330.087402 714.059021 1206.242310 2336.628906 1406.874878 1891.607300 2409.690674 147.363174 975.969971 862.673279 38113.667969 1951.939941 2061.186768 1354.666626 1631.974854 2291.594727 840.374817 1377.992065 1178.905396 1348.521118 1758.890991 908.632324 1404.026978 1026.019775 970.507446 2483.016602 3497.089111 1583.537231 1302.107666 2734.254883 1444.977783 1687.565308 1249.710571 1680.749634 1675.336548 4163.617676 1311.959595 1430.081055 2164.085205 1180.242798 1368.926270 1773.885742 684.913757 1985.465698 928.085632 1577.534546 1416.452026 2210.056396 1426.160400 1381.652100 2388.941406 1556.296143 1605.530884 1170.944336 727.541260 893.033447 1486.262817 2297.921631 1278.113037 1787.601318 1372.538208 1461.213501 2010.403809 886.942871 1229.041992 1535.622192 1314.446045 1528.852295 1799.972290 1544.742432 2040.969116 815.987427 2096.491699 2426.551514 1377.080078 1623.063965 2071.446533 1524.372192 957.996338 35455.046875 1133.933472 1568.024170 821.139709 740.486816 2240.999512 2254.353271 2151.776611 3462.176270 1173.586060 679.989563 1779.955566 1485.202026 3482.456787 2772.509033 2175.397705 821.788330 1722.490112 1601.822998 1941.014893 1263.368530 1851.217041 1404.974976 1260.307739 1229.041992 926.432739 992.732849 964.211304 1124.739502 1377.992065 1017.988281 1429.098877 883.178284 1946.462158 1763.362671 4001.476807 1171.603638 2168.596191 2087.029053 1766.356567 3520.758057 1264.136108 1365.333374 2022.126343 3251.199951 1001.332031 1587.160889 317.190247 2186.829102 1441.973633 1287.604004 1004.231689 905.469116 1535.622192 2099.665039 716.024780 1082.042603 1621.798950 1784.535156 1232.682495 1841.387573 2520.615479 16473.175781 631.300964 1029.573486 32800.285156 2614.030029 3722.304199 4255.149414 2534.431152 1921.300049 14047.378906 1082.042603 1484.142700 1172.263672 953.605896 2033.986328 676.892639 952.732605 2774.357422 2184.533447 432.412292 1504.532227 2686.595215 2106.040527 1038.825806 1034.693237 1849.571533 2752.338623 1600.590820 2295.386719 1358.203613 1542.452148 1000.369202 825.046814 2772.509033 2248.263672 1919.527710 1513.285767 1615.503052 1397.426514 1407.826782 1910.714478 4233.505371 1682.108276 3372.395508 1455.082520 955.357239 2436.496582 3982.331055 1090.549316 1642.279419 2736.052490 3663.323975 1113.901489 2811.848633 1355.549194 1604.292969 4001.476807 1766.356567 1544.742432 1793.765503 
linear_83_param_0 2259.248535 1573.954590 1942.827271 1826.837524 1282.050537 2752.338623 907.047974 2010.403809 1338.114502 2422.314209 2242.206787 2502.427002 1624.330933 665.632751 1288.401245 2736.052490 1851.217041 2032.000000 1776.915405 2808.053955 2640.568604 1559.796143 2554.656738 2016.248047 1741.228394 1930.211548 1174.911377 1826.837524 2287.815186 869.159546 1338.975586 1387.178711 2063.230469 1469.468872 2085.982910 2170.858643 1505.620850 1833.275757 1648.786011 1660.628906 2264.165283 2540.620361 5044.286133 1941.014893 1376.169312 2317.113525 1011.063171 1483.084839 1801.530762 2139.607178 2672.791260 1917.758545 2012.348145 3035.401855 1923.075806 1273.419800 2371.245605 1504.532227 879.445496 1021.486511 1573.954590 782.243591 1790.678101 2002.664062 1779.955566 825.701599 1814.095947 813.435486 1991.165527 1599.360474 1921.300049 1783.005981 1872.878540 1337.254517 2258.022705 1166.349731 1783.005981 6035.585449 1843.018555 1901.981689 2416.687500 1321.961914 1839.759521 1652.714844 1595.681030 1414.526123 1136.410645 2472.689209 1535.622192 1470.507446 2622.265869 1826.837524 2213.583008 2453.735840 2156.236328 1251.966309 2336.628906 2057.111328 1466.362183 1640.984253 2618.965332 1083.733276 2488.957031 2062.208008 648.214355 2075.579102 2546.839600 2008.463379 2091.224121 1492.659912 982.421143 1313.616211 871.343384 1163.740479 2707.570557 2279.044922 1013.032104 1979.798340 1668.619141 1142.024170 1176.905029 1264.136108 2369.895264 722.990967 862.673279 1844.652466 2178.814697 2056.094971 
convdw_383_param_0 1702.756104 1542.452148 1383.489380 1356.432861 1016.993164 1879.645874 2660.828613 1903.721924 1368.926270 1400.247681 1307.836548 2300.462158 1695.817383 2877.964111 1646.177246 1273.419800 1125.347778 1225.422852 1501.275635 1022.490417 1664.614380 2272.821289 1439.977905 1226.867920 2887.949951 3356.077393 1147.693359 2053.051758 1110.927979 1594.458252 2138.507812 1799.972290 1404.974976 1367.127441 5608.539062 1872.878540 1886.462402 3133.686768 1442.973633 1578.731445 1698.586182 1011.063171 1979.798340 2192.590088 2258.022705 2453.735840 2460.991211 2315.824219 912.617554 1306.194580 2419.497559 1356.432861 1565.664429 1221.825073 1578.731445 8139.923828 3179.171875 1145.797363 1274.199585 1998.816528 1229.041992 2322.285645 2093.327881 774.671631 1476.769287 1551.653931 1675.336548 956.235291 7187.454102 5254.464844 1172.263672 2176.535645 4486.831055 1761.869629 1248.960327 1655.344482 1852.865479 1715.389893 1449.002808 1540.168823 1284.424683 1126.566284 1199.981567 1161.142822 2289.073730 1579.930176 2063.230469 1294.815186 4930.729980 1426.160400 1439.977905 1691.681274 1180.912598 1159.202271 1128.399170 3413.893311 1483.084839 1384.409790 1474.676147 2010.403809 1392.749634 1989.261963 1301.293335 2240.999512 3405.512207 2158.473145 1273.419800 2184.533447 1665.947144 1213.983643 1051.955566 1814.095947 1494.804565 1412.605591 1064.876099 1024.504150 1741.228394 1211.862549 1050.892944 1406.874878 3494.152832 1951.939941 1912.470581 1361.759155 1593.237427 950.990845 1361.759155 1165.696411 
linear_84_param_0 1235.610474 1907.211792 710.644836 1432.049561 1856.171265 1937.400391 1946.462158 1408.779907 1005.201904 557.249084 1844.652466 2103.911133 1251.966309 1065.967163 1438.982056 1385.331543 2014.296265 1738.319092 1079.236572 1029.573486 1019.984314 2004.593506 6941.678223 965.105774 957.114990 1680.749634 1441.973633 1500.193237 1667.282104 1942.827271 821.788330 2056.094971 2182.242188 2238.588379 1112.710205 1701.363892 1905.465210 1528.852295 1381.652100 1773.885742 2363.166504 1252.720093 1318.610840 1458.141602 2469.754395 1772.374756 1815.678833 2074.544434 2083.893799 2327.480957 1143.907593 1160.495239 2059.146973 1874.565796 1716.805298 1067.060547 1851.217041 1376.169312 1535.622192 2638.894043 1852.865479 1570.390991 1373.444214 1129.011353 1571.577026 1167.658813 1663.283813 1755.922363 1648.786011 1950.110596 1410.690186 1509.991333 731.634338 1180.912598 1049.832520 692.665771 1566.843384 890.739746 1809.363525 1021.988220 1027.539795 767.811096 1486.262817 1751.488159 1572.764893 1869.513062 2505.440186 778.730530 1540.168823 1264.904541 1006.174072 1719.642944 1989.261963 2778.061523 1773.885742 2336.628906 1570.390991 1389.958618 1124.739502 1953.772827 2416.687500 1818.853149 1251.213501 1358.203613 1981.683838 1338.114502 2548.399170 712.104065 1264.904541 1472.588867 2355.142090 1338.114502 1442.973633 940.672668 1589.585938 1770.866333 2076.614746 1742.686768 1442.973633 1516.594727 2026.064209 2349.822754 1903.721924 871.343384 1676.686523 1592.018311 757.745056 1917.758545 1739.772583 2247.049561 1015.008789 980.569275 1365.333374 1798.416626 1012.046692 1517.700928 2063.230469 1334.681152 1331.265503 2497.920654 2063.230469 1410.690186 1215.401855 1921.300049 2146.228027 1434.023438 1236.344604 1029.573486 1388.104126 2184.533447 899.986145 709.675293 1467.396362 2602.586670 2430.803711 2290.333496 1820.444458 1778.434204 1400.247681 953.605896 2099.665039 1694.436523 1193.100952 1763.362671 1953.772827 1205.543457 1946.462158 1814.095947 1620.535767 1358.203613 2033.986328 2145.121582 1200.673950 1690.307007 1386.254517 1463.268677 1795.313232 2277.797363 1830.051025 1881.345337 2006.526489 2413.884033 1643.576660 1485.202026 2375.305908 1258.021729 1861.152100 1335.537842 1091.121094 2300.462158 1951.939941 1560.966187 1809.363525 1964.842285 1419.350586 2168.596191 2326.179932 1529.976440 956.235291 1729.649170 1647.480591 1189.010254 1581.130737 1629.418945 1085.429321 1619.274658 2359.147461 1812.515625 1015.008789 1970.424194 2024.093384 1869.513062 1713.976929 1087.698853 940.672668 1415.488403 2341.888672 1498.033081 1884.753662 2026.064209 1440.975098 1150.231079 2669.362305 1467.396362 1964.842285 2112.454834 1271.863037 1054.621338 1910.714478 2379.380127 1466.362183 1105.028198 2125.401367 2429.384766 2411.086914 1810.938232 1849.571533 1893.328491 1735.419556 1270.310181 1502.359619 1209.748779 2097.548340 1503.445068 2165.211182 1776.915405 1723.917114 1290.798950 2024.093384 1657.982422 1446.987427 1683.469238 1545.890015 1369.827515 1944.642944 2296.653320 2201.870850 1125.347778 1910.714478 1852.865479 726.525146 2142.912354 1197.909058 1933.799316 812.799988 3035.401855 1665.947144 1615.503052 1901.981689 1709.751831 211.116882 2106.040527 2657.430420 2384.834473 1313.616211 1362.651001 1564.487183 2018.203735 2357.810791 2589.630371 2386.201904 1010.081543 2016.248047 1889.889160 857.694946 825.701599 997.491821 1374.351440 1521.029297 1548.190430 1339.837769 1966.699463 1388.104126 1507.802856 2233.781982 1461.213501 1981.683838 1335.537842 1089.978027 2537.521973 1924.854736 1862.818237 1699.973877 1244.478516 2108.174316 2169.726807 1380.735229 1524.372192 1445.981934 1872.878540 2053.051758 1501.275635 1179.573730 1773.885742 1635.823853 976.886414 1526.609009 1590.801270 1760.379028 1818.853149 1861.152100 1441.973633 1598.132080 2605.845947 906.257812 1243.734619 787.573059 1344.165405 1843.018555 1411.647217 1639.691040 1711.157837 1993.072754 1231.952637 996.536377 1348.521118 1327.867310 2066.303955 1262.601929 1761.869629 3297.572021 1180.912598 1059.454224 1776.915405 819.200012 1095.717773 1820.444458 2440.783691 1542.452148 2469.754395 2096.491699 2280.293701 2406.903320 1351.148071 1139.522461 1638.400024 1651.403198 1828.442871 3019.982666 1964.842285 991.786438 1311.132935 1474.676147 1697.200684 751.179810 1440.975098 2274.063477 1883.047974 1643.576660 2059.146973 1792.220459 1464.298340 622.611633 1722.490112 1199.981567 1799.972290 1176.239624 1630.695923 1915.992676 1232.682495 1712.566284 1522.141968 1742.686768 2016.248047 1573.954590 1908.961426 1539.029541 1288.401245 1264.136108 1541.309570 1996.898315 2383.468506 1976.037964 1705.547485 1675.336548 1461.213501 800.911499 1106.791504 964.211304 1557.461060 2196.061279 2382.104248 1695.817383 1504.532227 1776.915405 1356.432861 770.654785 2337.941650 1463.268677 1150.867310 1182.926636 2383.468506 1068.156006 1577.534546 566.041321 1078.677002 1619.274658 1116.890991 1082.605591 1098.610352 1397.426514 2376.662598 1633.255859 717.011719 1638.400024 1828.442871 1661.955322 658.470886 1659.304565 1229.768311 1417.416870 1226.145020 1704.150757 1290.798950 2185.680664 1793.765503 2069.386475 2020.163086 1675.336548 1044.038086 1266.444336 1458.141602 1162.440186 1169.627930 1322.802246 1417.416870 1017.988281 2539.070068 2014.296265 2135.216064 1308.659180 1639.691040 977.804504 1099.771729 2091.224121 1194.470703 1603.057007 2048.000000 1229.768311 1588.372559 1079.236572 2094.381592 1715.389893 1165.043701 2164.085205 2436.496582 2067.330322 1676.686523 1248.960327 926.432739 1493.731567 1939.205933 2106.040527 1713.976929 1382.570068 2123.232666 2322.285645 807.124878 852.075378 1810.938232 2108.174316 2193.745850 1817.264648 1418.383057 1027.032593 2113.527588 1400.247681 1157.912109 1466.362183 1923.075806 2115.676758 762.744873 1118.692505 1128.399170 1372.538208 1959.291870 1742.686768 1994.983643 537.944153 1979.798340 1633.255859 3030.980225 1407.826782 2529.809082 1764.858398 2379.380127 1619.274658 1654.028564 1476.769287 805.250793 960.650024 2292.857422 
linear_85_param_0 1950.110596 1492.659912 1337.254517 1672.643066 1121.707764 1979.798340 1005.201904 1327.867310 1307.836548 2010.403809 2079.728027 1400.247681 1809.363525 967.799072 1475.722046 1961.138550 2026.064209 1624.330933 1895.052856 2345.848877 1055.691528 960.650024 2177.674561 1598.132080 1549.343262 1611.749023 1227.591797 1758.890991 1839.759521 847.908691 2196.061279 1976.037964 2299.191162 1358.203613 241.276443 889.217102 1664.614380 961.537903 1370.729858 1489.454590 1459.164062 2676.229004 1526.609009 1702.756104 1072.008301 1027.539795 1440.975098 1742.686768 2000.738403 1490.521484 21674.666016 1687.565308 1667.282104 1537.892090 1852.865479 1043.514526 1898.510986 2090.173828 1126.566284 1054.087158 1545.890015 484.801483 969.602966 2493.430908 1656.662476 884.680298 1836.511963 2010.403809 1393.682495 1363.543945 2082.850830 1618.015503 1375.259766 1048.245850 1639.691040 1834.892456 1994.983643 1087.130615 1948.284668 1571.577026 2272.821289 1476.769287 1535.622192 1404.974976 1227.591797 2157.354004 1244.478516 2251.913330 1773.885742 1328.715210 2243.415527 2599.335449 1726.778442 1719.642944 841.734619 1321.122559 1886.462402 2175.397705 1494.804565 1098.610352 1895.052856 1647.480591 2096.491699 1286.807617 1812.515625 764.988220 1455.082520 1294.010010 1968.560059 1752.963745 1221.825073 1165.043701 1611.749023 1172.263672 2254.353271 1792.220459 1099.190674 2413.884033 1852.865479 1381.652100 1065.967163 2002.664062 1223.981201 722.990967 1062.158203 1663.283813 1818.853149 1045.612061 
convdw_384_param_0 1589.585938 1237.815552 1404.974976 1970.424194 1910.714478 1953.772827 1705.547485 6197.373047 1705.547485 1286.012329 1269.535034 1818.853149 1340.701050 1611.749023 1423.233887 1163.740479 1250.461548 982.421143 5808.145020 1028.555664 3323.910645 3482.456787 8381.744141 7656.919922 1341.565430 1327.867310 2752.338623 1398.365601 1812.515625 1884.753662 8269.321289 5044.286133 1294.815186 1248.211182 111906.851562 4681.143066 1528.852295 2355.142090 1329.564209 1388.104126 1417.416870 1138.275757 2511.488281 2471.220947 1437.987549 2983.179932 3974.723877 5873.727539 4465.167480 1461.213501 4786.125488 1300.479980 8554.031250 1142.651245 6142.488770 10231.188477 1377.080078 1213.983643 1368.926270 1428.118042 2126.487549 2761.470459 2364.509033 957.114990 1694.436523 2809.949951 1907.211792 1453.050293 2128.662842 39704.578125 1085.429321 8765.742188 1648.786011 5247.838379 1119.294189 1460.188110 1357.317627 2189.129883 1423.233887 1264.136108 1300.479980 1234.144775 1239.290039 3766.095947 1694.436523 1416.452026 3842.600098 1442.973633 1767.857300 1825.235107 1300.479980 1290.798950 1333.825684 1175.575195 2030.017578 1350.271240 1721.065308 1296.428711 1318.610840 1616.758301 1434.023438 1620.535767 1364.437988 1178.905396 1425.183594 2339.255859 1106.203125 2051.028076 1459.164062 1298.046143 1298.856445 1156.624756 2319.696777 2702.296143 1398.365601 1111.521362 1644.875854 1236.344604 1017.490479 1305.375122 3644.077148 2155.119629 1679.393066 1750.015137 1182.926636 1886.462402 1261.836304 1823.635376 
linear_86_param_0 2269.103516 2034.980957 2150.664551 1620.535767 3026.571533 1663.283813 2446.523193 2148.444092 2071.446533 1976.037964 2236.182617 1998.816528 1452.036255 1294.815186 2272.821289 1314.446045 1789.138428 1822.038574 2654.040771 1153.419067 2125.401367 1790.678101 1485.202026 1834.892456 2166.338379 1776.915405 2459.536621 1562.138184 1726.778442 1923.075806 1409.734375 2413.884033 1430.081055 1414.526123 1866.159668 2083.893799 1370.729858 2118.908447 2693.550781 1433.035767 1844.652466 1750.015137 941.523987 2062.208008 1380.735229 1437.987549 1183.599487 1629.418945 1255.744141 2303.008301 1790.678101 1728.212646 271.357330 1741.228394 2755.984131 1979.798340 1505.620850 2553.089600 1222.542847 1839.759521 1742.686768 1526.609009 1499.112427 2144.016602 2265.397949 1311.132935 1646.177246 1263.368530 708.708435 2267.866943 1034.693237 3138.413330 1838.134277 1254.986694 1680.749634 1499.112427 3022.175781 3048.744385 1964.842285 2388.941406 1298.046143 2483.016602 1806.222168 1812.515625 1571.577026 1901.981689 2978.909180 1823.635376 2186.829102 1979.798340 1979.798340 2443.650146 2162.960449 2337.941650 2562.522217 1828.442871 2020.163086 2059.146973 1844.652466 2113.527588 2484.499023 2155.119629 2840.638916 1381.652100 2596.092285 1683.469238 2383.468506 1739.772583 1294.010010 1948.284668 1514.387207 1680.749634 3026.571533 2000.738403 1359.090820 2114.601562 2002.664062 1553.971680 2115.676758 815.987427 2182.242188 1624.330933 1950.110596 2290.333496 2018.203735 2895.988770 1996.898315 1744.147583 1024.000000 2567.264648 2573.615234 1798.416626 1642.279419 1415.488403 952.732605 1180.912598 1418.383057 1472.588867 1847.928955 1659.304565 3013.422119 1195.156860 2349.822754 2002.664062 1352.026001 2061.186768 1174.911377 1941.014893 1601.822998 2028.038940 1642.279419 2588.020020 1088.267822 1993.072754 1452.036255 1864.487427 1895.052856 2183.387207 1933.799316 1921.300049 2199.543457 2573.615234 1450.012573 1526.609009 1459.164062 1735.419556 1876.256104 1939.205933 1775.399292 2323.582275 802.765442 2096.491699 1475.722046 2446.523193 1676.686523 1620.535767 1684.832397 2230.190674 2415.284912 1054.621338 1770.866333 2296.653320 1983.572876 1939.205933 2401.347900 1803.091797 1996.898315 1544.742432 1154.058838 1563.311768 1801.530762 758.297363 2693.550781 3078.059082 2776.208252 1750.015137 1404.974976 1442.973633 1603.057007 2817.559814 1487.325195 1453.050293 2039.968628 1181.583252 2399.963135 1903.721924 1422.261108 1932.003662 1589.585938 2280.293701 1989.261963 885.433167 1976.037964 1426.160400 2225.420410 1822.038574 817.269470 1534.489624 1534.489624 1926.637085 1470.507446 1871.194214 1705.547485 1912.470581 1801.530762 2203.036621 1564.487183 2053.051758 1750.015137 1242.991577 1695.817383 2305.560059 2089.124512 1893.328491 1739.772583 1370.729858 1630.695923 1446.987427 2090.173828 1446.987427 1671.299561 1592.018311 1625.599976 2578.398926 2012.348145 1338.114502 1713.976929 1108.560425 2422.314209 1061.074951 2349.822754 1108.560425 2432.224365 1792.220459 2211.230713 1478.868530 1513.285767 1907.211792 1839.759521 2057.111328 730.606750 2399.963135 2221.855957 2002.664062 2281.543945 1226.145020 1994.983643 1440.975098 1691.681274 1425.183594 1186.975464 1697.200684 2640.568604 1604.292969 1861.152100 1908.961426 1030.083130 1935.598145 1202.061279 2062.208008 2425.137451 2789.233154 1917.758545 1118.692505 1907.211792 3004.719238 1815.678833 1888.174194 1862.818237 1872.878540 1537.892090 1962.988647 1432.049561 2000.738403 2130.842773 2130.842773 2591.242920 2632.217529 1322.802246 1548.190430 1133.933472 1776.915405 1475.722046 1801.530762 939.822937 1326.174683 1962.988647 1336.395630 2716.407227 2310.680664 2156.236328 2269.103516 2553.089600 1502.359619 1360.868530 1560.966187 2249.479004 1214.692383 1688.935059 932.243713 1374.351440 2596.092285 2077.651611 1334.681152 1516.594727 1656.662476 2074.544434 1410.690186 1350.271240 2677.951172 2290.333496 1467.396362 1718.222900 2201.870850 2391.687256 1375.259766 1996.898315 1560.966187 1683.469238 1512.186035 1862.818237 2520.615479 1562.138184 1650.093628 1638.400024 2242.206787 1998.816528 1822.038574 1634.538940 1153.419067 2024.093384 1793.765503 1170.944336 1498.033081 1862.818237 1515.490112 1404.974976 2081.808838 1577.534546 2718.181641 1223.261597 1366.229858 1939.205933 2617.318359 2100.724854 1213.275757 1991.165527 2237.385010 1321.122559 1750.015137 1872.878540 1508.896362 957.996338 1129.624268 1631.974854 2016.248047 2679.675537 1839.759521 2296.653320 2369.895264 2458.083984 1968.560059 2045.986206 3024.372070 2089.124512 1359.090820 1763.362671 1374.351440 1877.949463 1437.987549 2046.992676 1919.527710 1933.799316 1135.790405 1578.731445 1798.416626 830.977661 2004.593506 1097.451416 2126.487549 1298.856445 1822.038574 2592.857422 889.217102 1773.885742 1668.619141 2249.479004 1186.298706 1265.673950 1474.676147 1002.296753 2800.495361 2276.551514 2511.488281 2581.597900 1265.673950 2269.103516 1539.029541 2150.664551 2020.163086 2151.776611 1976.037964 1067.608032 2206.540771 1693.057739 1477.818237 1673.988770 2183.387207 1332.117798 2343.207275 1864.487427 2355.142090 1676.686523 1126.566284 2242.206787 2912.201660 2178.814697 1862.818237 1823.635376 1761.869629 1106.791504 2072.478027 2693.550781 2012.348145 1242.991577 1610.501587 2642.245117 1810.938232 1668.619141 1921.300049 2772.509033 1143.907593 2205.371582 2383.468506 1611.749023 1281.261108 2323.582275 1729.649170 2261.704346 1668.619141 1697.200684 1228.316406 2046.992676 2126.487549 2367.198975 1972.291992 2291.594727 1713.976929 2193.745850 1998.816528 2258.022705 2539.070068 2088.076172 1211.862549 3402.727783 2126.487549 2226.611084 2082.850830 2200.706543 1507.802856 1786.066895 1256.502441 1363.543945 2423.725098 1091.121094 1621.798950 2045.986206 2281.543945 1706.946655 3188.916504 1991.165527 2739.655029 2844.522217 1470.507446 2360.485596 2157.354004 1305.375122 1651.403198 1477.818237 2596.092285 2026.064209 2494.925781 1618.015503 2734.254883 1654.028564 1972.291992 1985.465698 1505.620850 1889.889160 1581.130737 2139.607178 2074.544434 
linear_87_param_0 2906.100586 2628.892090 2891.963867 2823.294434 2076.614746 2343.207275 1891.607300 2620.614502 1661.955322 2144.016602 2236.182617 2270.341553 2165.211182 1517.700928 2123.232666 2676.229004 2499.421143 2240.999512 3967.145752 2787.364990 1522.141968 1237.815552 1895.052856 1804.655640 2061.186768 2037.970581 827.672241 1537.892090 2627.232422 1686.197754 1784.535156 2305.560059 2398.579834 2189.129883 274.942932 1831.661987 2033.986328 2091.224121 2189.129883 1872.878540 2041.970581 2269.103516 1741.228394 2719.958252 1263.368530 2224.230957 1795.313232 2102.847900 1558.627686 2688.330811 9843.964844 2607.478760 2553.089600 2223.042725 2684.861816 1097.451416 2508.460449 2852.320801 2262.934082 1657.982422 2255.574951 1976.037964 1896.780273 2319.696777 2276.551514 1713.976929 1435.012451 2375.305908 1879.645874 1319.447021 2974.650391 2583.200439 2064.253906 3297.572021 2537.521973 2010.403809 2825.211182 1002.296753 2279.044922 2719.958252 2420.905273 2133.027100 2161.836914 2016.248047 1532.229736 2071.446533 2671.075684 2398.579834 2181.098633 1476.769287 2401.347900 2864.099121 2294.121338 3238.549316 2364.509033 1531.102295 2418.091797 2792.977295 2030.017578 2804.269531 2602.586670 2036.973022 2280.293701 1726.778442 1713.976929 1564.487183 2456.632812 2042.973022 1966.699463 2223.042725 1595.681030 1236.344604 1562.138184 1849.571533 2821.380371 2033.986328 2000.738403 2093.327881 2435.070801 2460.991211 1668.619141 1665.947144 1770.866333 2002.664062 1825.235107 1806.222168 2493.430908 2133.027100 
conv_38_param_0 2809.949951 2072.478027 1395.552002 1539.029541 2893.974854 2296.653320 2420.905273 2232.583740 1993.072754 2301.734619 2144.016602 2449.403076 3408.301514 2440.783691 2340.571533 2623.919189 1107.380493 2579.997559 2746.888428 1814.095947 1828.442871 2279.044922 2375.305908 1620.535767 2540.620361 2248.263672 2219.485840 1616.758301 2517.565674 2347.172119 2193.745850 1806.222168 2204.203369 1458.141602 2610.750244 2110.312256 2145.121582 2095.436035 2483.016602 2477.104736 1869.513062 1838.134277 2097.548340 1660.628906 2214.760986 2240.999512 1942.827271 2225.420410 1667.282104 2199.543457 1957.448730 1611.749023 1240.028564 1688.935059 1792.220459 2523.672607 1944.642944 2250.695557 2702.296143 2594.473877 2399.963135 2294.121338 1639.691040 2502.427002 2207.711426 2485.983154 2317.113525 1935.598145 2014.296265 1173.586060 2583.200439 2056.094971 2124.316406 2305.560059 2256.798340 2217.120850 2322.285645 2125.401367 2063.230469 1883.047974 2258.022705 2702.296143 1683.469238 2130.842773 2405.512207 1545.890015 2303.008301 2223.042725 1957.448730 2166.338379 1930.211548 2244.625732 2363.166504 2386.201904 2238.588379 1122.312866 1812.515625 2542.172363 2236.182617 2020.163086 2262.934082 2344.527344 3686.037109 1490.521484 2391.687256 2069.386475 1826.837524 3119.592285 2398.579834 2356.475586 1558.627686 2231.386475 1877.949463 2115.676758 1919.527710 1217.535400 2599.335449 2233.781982 1834.892456 1307.015015 2154.004150 1757.405396 2364.509033 2388.941406 2564.101074 2586.411377 2192.590088 2026.064209 2466.826416 2258.022705 2589.630371 1932.003662 2171.991699 2456.632812 2318.404541 3022.175781 2191.435547 2542.172363 2280.293701 3236.031006 1877.949463 1711.157837 2269.103516 1652.714844 1733.973389 1320.284302 2190.282227 2376.662598 2520.615479 2225.420410 2271.580811 1548.190430 2178.814697 1503.445068 2637.221680 1559.796143 2286.558350 2770.663086 2665.942383 2576.802490 2430.803711 608.411682 1888.174194 1998.816528 2825.211182 1729.649170 2622.265869 1903.721924 1713.976929 2301.734619 1846.289307 2102.847900 1784.535156 1781.479492 2525.203857 2332.699463 2215.940430 1256.502441 1642.279419 2199.543457 2154.004150 2714.635254 718.497253 2511.488281 2223.042725 2718.181641 2062.208008 2199.543457 2654.040771 1531.102295 1979.798340 1864.487427 2113.527588 2167.466553 1533.358887 2339.255859 2262.934082 1405.924316 1731.088135 1325.329956 1732.529541 2592.857422 2412.484619 2331.392822 2576.802490 1549.343262 1957.448730 2155.119629 1867.834839 1490.521484 1895.052856 2765.140137 2445.085693 2072.478027 2008.463379 2078.689209 2299.191162 2069.386475 1368.026245 2705.810059 1721.065308 2420.905273 1701.363892 1881.345337 1961.138550 2528.272217 2691.808594 2183.387207 2546.839600 1953.772827 2083.893799 2412.484619 2205.371582 2447.962402 1625.599976 2373.950928 2433.646729 1521.029297 1787.601318 2586.411377 1286.807617 2416.687500 1773.885742 2236.182617 2743.267090 1289.199463 2010.403809 1831.661987 1955.609009 2170.858643 2422.314209 2160.714355 1496.955444 2447.962402 1564.487183 1820.444458 
convdw_385_param_0 1259.544800 930.576050 1420.319458 1549.343262 1275.762085 1298.856445 1266.444336 1160.495239 1095.717773 1237.815552 1232.682495 1089.978027 2542.172363 1098.030640 3715.657227 2695.295410 1033.665161 1254.986694 976.886414 1088.267822 1261.071533 1659.304565 1059.454224 1102.685791 1213.983643 1007.148132 1140.771973 1114.498169 1064.876099 1124.739502 1119.294189 1950.110596 1795.313232 1082.042603 2149.553711 1138.898682 1062.158203 882.429199 3201.181641 3048.744385 1985.465698 972.321472 1192.417236 925.608521 1605.530884 1172.924438 1091.693604 1790.678101 3422.315674 1182.926636 4550.613281 1113.305542 1041.946899 2763.304199 2698.791260 1150.867310 1031.104004 1186.298706 1268.760986 1258.021729 1223.261597 1384.409790 1102.101685 1069.253906 927.258484 1139.522461 1097.451416 1220.391846 1135.170776 2556.226074 3644.077148 3002.551270 1492.659912 1170.285767 1354.666626 1162.440186 1183.599487 1188.331299 1187.652954 2573.615234 1070.353882 1190.370728 1991.165527 2061.186768 2526.737061 3752.512207 1193.100952 1159.848389 1140.771973 1424.208130 1077.559814 1120.499756 1604.292969 2168.596191 2557.797119 741.542419 1154.058838 6160.675293 1116.291870 1101.518311 1311.959595 1412.605591 1482.028442 5479.310059 1186.298706 1193.100952 1628.143921 1116.890991 1116.890991 1114.498169 1439.977905 1159.202271 2383.468506 1038.825806 1240.028564 1111.521362 1135.170776 1176.239624 1383.489380 1624.330933 2759.639160 2596.092285 1209.748779 1249.710571 4134.660645 1332.117798 1149.595581 2162.960449 3193.811279 1038.307373 4907.471680 792.371643 1096.872925 1426.160400 1113.305542 2754.160156 2004.593506 1266.444336 1174.911377 1063.243774 1157.912109 1067.060547 1091.693604 4429.521973 3526.725342 1213.983643 1155.340332 1258.021729 2274.063477 1401.190552 1125.956665 1587.160889 1006.174072 1031.615234 1767.857300 970.507446 1135.790405 1160.495239 1048.774170 997.491821 1034.178955 2057.111328 1246.715454 4067.972656 1107.380493 1889.889160 1477.818237 1343.297607 4699.645508 1144.536865 2632.217529 1021.486511 1105.615356 1224.701538 1027.539795 1124.739502 1135.170776 1065.967163 1786.066895 1177.571045 3618.727051 1535.622192 1823.635376 1419.350586 1072.560791 3105.623779 1215.401855 3529.716797 4174.058105 7005.952637 857.694946 4916.167969 1390.887695 1323.643799 1659.304565 1088.267822 1472.588867 1197.909058 1125.347778 780.483093 1114.498169 2930.659180 1147.060669 1230.495605 1125.956665 1283.632324 1356.432861 1150.231079 1068.156006 2110.312256 1205.543457 2231.386475 1067.060547 1182.254517 2125.401367 1223.981201 1086.562866 1262.601929 1003.263245 2254.353271 1231.952637 958.879272 1057.300781 1898.510986 1240.768066 1153.419067 1180.912598 1989.261963 1297.236938 950.990845 919.067139 1165.696411 1193.785400 2545.281982 4174.058105 1082.042603 1709.751831 1003.263245 1926.637085 1146.428711 1024.000000 1161.142822 1155.982178 1197.909058 3520.758057 1383.489380 1096.872925 1492.659912 1142.651245 1293.205688 1258.782837 1757.405396 1115.095337 1415.488403 1240.768066 1281.261108 
linear_88_param_0 1655.344482 1191.734253 1130.237915 1427.138550 2383.468506 1186.975464 986.145996 1977.916382 1663.283813 1366.229858 1243.734619 2057.111328 2186.829102 2024.093384 2151.776611 1996.898315 1320.284302 1505.620850 1329.564209 1370.729858 1781.479492 1118.692505 2500.923096 2493.430908 1715.389893 3241.071533 1959.291870 1464.298340 1307.836548 1091.121094 1302.107666 1680.749634 2588.020020 2145.121582 2468.289551 1994.983643 1349.395630 1953.772827 1590.801270 2207.711426 1261.071533 1191.734253 2149.553711 1688.935059 1684.832397 1391.818115 2032.000000 872.805359 1284.424683 1953.772827 1223.981201 2061.186768 1212.568726 2207.711426 1576.339355 748.477722 1678.038696 1570.390991 1465.329590 2054.065186 1417.416870 1705.547485 1204.845337 1474.676147 1350.271240 2171.991699 1901.981689 1507.802856 1354.666626 843.782654 1386.254517 1709.751831 1806.222168 988.018982 2331.392822 1793.765503 1989.261963 1078.677002 2750.519531 840.374817 688.084656 1258.021729 1763.362671 1084.298096 1231.223633 1781.479492 1578.731445 1576.339355 1216.823364 1307.015015 1729.649170 1294.010010 872.073792 1687.565308 1879.645874 1796.863525 2439.352783 1436.994507 1577.534546 1601.822998 1429.098877 1565.664429 1482.028442 843.098877 1337.254517 2053.051758 1019.484558 2099.665039 1371.633545 1045.086914 1131.467041 1799.972290 1680.749634 1702.756104 1815.678833 667.340576 1623.063965 1926.637085 1490.521484 1557.461060 1815.678833 1669.958252 1630.695923 1667.282104 1831.661987 1576.339355 1826.837524 1834.892456 1555.133057 2556.226074 1923.075806 1676.686523 1814.095947 1469.468872 1697.200684 1227.591797 1699.973877 1849.571533 1214.692383 1311.132935 1245.223267 1629.418945 1715.389893 2562.522217 1354.666626 1764.858398 1190.370728 1594.458252 2462.447266 1524.372192 2030.017578 1814.095947 1744.147583 1910.714478 1665.947144 2140.707764 1757.405396 1716.805298 2429.384766 1289.199463 1173.586060 2443.650146 2046.992676 2036.973022 1673.988770 1779.955566 2281.543945 940.672668 2113.527588 2063.230469 1184.273193 2083.893799 1823.635376 1903.721924 2016.248047 1178.905396 1283.632324 1766.356567 784.603333 1552.811890 2472.689209 1265.673950 1254.986694 1483.084839 1792.220459 1456.100830 1517.700928 1487.325195 1872.878540 1533.358887 1748.544556 1367.127441 1864.487427 1521.029297 1407.826782 1684.832397 1273.419800 1467.396362 2620.614502 2150.664551 1414.526123 706.302795 2269.103516 1205.543457 1536.756226 1073.114014 1896.780273 1576.339355 3015.605713 809.637329 687.629883 2095.436035 1484.142700 1921.300049 1367.127441 955.357239 1836.511963 2113.527588 1705.547485 1237.079712 1054.621338 1412.605591 1590.801270 1377.992065 1872.878540 1361.759155 1889.889160 1176.239624 1447.994385 1223.261597 1966.699463 2070.416016 1167.658813 2475.631104 1757.405396 1498.033081 1358.203613 1124.131836 2327.480957 1207.642456 1305.375122 854.875916 873.538208 1893.328491 1103.270386 1937.400391 1477.818237 1524.372192 1804.655640 961.537903 1551.653931 1511.087891 1013.032104 1114.498169 1919.527710 2272.821289 1560.966187 1579.930176 1881.345337 1609.255981 1512.186035 1861.152100 1228.316406 2291.594727 1095.717773 2008.463379 1739.772583 1526.609009 1625.599976 1359.979126 1634.538940 1760.379028 2101.785889 1496.955444 2020.163086 1889.889160 1553.971680 1404.026978 1245.223267 2142.912354 1354.666626 1595.681030 1712.566284 1589.585938 1521.029297 1158.556763 3030.980225 1924.854736 1483.084839 2732.459717 1517.700928 1715.389893 1640.984253 1608.012329 1201.367188 1134.551758 1345.904297 2272.821289 1955.609009 1623.063965 912.617554 2171.991699 1502.359619 2148.444092 2315.824219 871.343384 1259.544800 1054.621338 1915.992676 1668.619141 1482.028442 1443.974976 1587.160889 1362.651001 1679.393066 1914.229980 1399.306030 1502.359619 1392.749634 1373.444214 1311.959595 2076.614746 2112.454834 3053.218018 1559.796143 2265.397949 2177.674561 1933.799316 1062.158203 1833.275757 2239.793213 2347.172119 1695.817383 1757.405396 1976.037964 1841.387573 1283.632324 1515.490112 1059.993896 1541.309570 915.830994 1395.552002 2010.403809 1869.513062 2447.962402 1660.628906 1921.300049 1509.991333 1669.958252 1191.052124 1130.237915 1513.285767 1412.605591 1803.091797 1983.572876 1041.946899 1841.387573 1111.521362 1761.869629 1697.200684 1728.212646 1834.892456 2716.407227 1487.325195 1051.423950 1851.217041 1240.768066 1614.249756 1656.662476 1544.742432 1505.620850 1983.572876 2265.397949 2196.061279 1695.817383 1327.867310 1752.963745 1316.941772 1483.084839 1701.363892 2589.630371 1643.576660 1558.627686 1248.211182 1886.462402 1361.759155 1087.698853 1300.479980 1889.889160 891.502991 1748.544556 976.886414 1440.975098 1482.028442 1657.982422 1644.875854 2310.680664 1715.389893 2103.911133 1302.107666 1588.372559 1793.765503 1709.751831 2008.463379 1416.452026 918.255981 1246.715454 1610.501587 856.283142 1801.530762 2002.664062 1895.052856 1231.223633 1585.951172 1534.489624 1570.390991 1055.691528 1444.977783 1157.268066 3055.459717 1738.319092 1599.360474 1182.926636 1721.065308 1946.462158 2573.615234 1124.739502 1966.699463 1252.720093 1479.920288 1377.080078 1168.314453 2084.937988 1796.863525 1533.358887 2488.957031 1656.662476 1362.651001 1930.211548 2219.485840 1281.261108 1651.403198 1402.134766 2127.574707 1106.791504 1872.878540 1223.981201 1205.543457 2094.381592 1495.879272 1318.610840 1517.700928 1559.796143 2043.976440 1625.599976 1362.651001 1181.583252 1136.410645 1134.551758 1846.289307 1334.681152 1654.028564 1883.047974 1789.138428 2277.797363 1592.018311 2600.959961 1787.601318 1861.152100 2267.866943 1499.112427 1185.622803 1564.487183 941.523987 1864.487427 1102.101685 1773.885742 1770.866333 1434.023438 1970.424194 2433.646729 1600.590820 1202.061279 1399.306030 2018.203735 1167.658813 1955.609009 2240.999512 2032.000000 1466.362183 1589.585938 1300.479980 1900.244751 731.120178 1886.462402 1775.399292 1399.306030 1822.038574 2147.335449 1483.084839 1542.452148 1888.174194 1359.979126 1657.982422 2030.017578 1143.279175 1678.038696 2365.853271 1368.926270 1555.133057 2141.809570 1340.701050 978.724365 1569.206665 2522.143066 2628.892090 1460.188110 1183.599487 1457.120483 1275.762085 1414.526123 1362.651001 1328.715210 1106.203125 2142.912354 1542.452148 1242.249512 1857.828613 1511.087891 1244.478516 1761.869629 938.128052 786.977295 1564.487183 2141.809570 1168.970825 1402.134766 1327.867310 1719.642944 1974.163208 1937.400391 1908.961426 2207.711426 1810.938232 1655.344482 1016.000000 1476.769287 2367.198975 2335.317627 1684.832397 1661.955322 1572.764893 1020.484558 1195.156860 1505.620850 1145.797363 2376.662598 2082.850830 1292.402466 1053.020264 1576.339355 1170.944336 1733.973389 1249.710571 2323.582275 1550.497803 1356.432861 1378.905273 2331.392822 2315.824219 1262.601929 1651.403198 2928.596680 1691.681274 1361.759155 1833.275757 1075.888306 1278.113037 782.243591 1874.565796 1353.785278 2287.815186 1188.331299 2813.749756 2348.496582 1305.375122 1067.060547 1096.295044 1301.293335 2136.312012 1663.283813 1793.765503 1332.117798 1615.503052 2255.574951 2248.263672 1508.896362 1839.759521 1907.211792 1450.012573 1357.317627 1105.615356 2368.546387 2004.593506 1218.961914 2006.526489 1170.944336 1733.973389 1499.112427 1736.868164 1796.863525 974.142334 1634.538940 1321.961914 1786.066895 2382.104248 1825.235107 2004.593506 1620.535767 1822.038574 1352.026001 1871.194214 1809.363525 1521.029297 2341.888672 1469.468872 993.680969 1898.510986 1103.270386 2233.781982 1236.344604 1807.791504 2500.923096 1764.858398 1316.108765 1083.169189 1951.939941 1716.805298 1687.565308 1955.609009 983.349731 1208.343750 1088.267822 931.409119 1421.289673 1807.791504 1112.115479 1040.384033 2490.446533 2091.224121 2440.783691 1790.678101 3221.003174 849.986938 2327.480957 1912.470581 2183.387207 2885.947266 1731.088135 2319.696777 1221.108032 1507.802856 1172.924438 1350.271240 1218.961914 1069.803589 1163.740479 1656.662476 2327.480957 1659.304565 1702.756104 1404.026978 935.597107 1793.765503 1903.721924 1686.197754 859.111450 1340.701050 3004.719238 1694.436523 2254.353271 860.532654 1568.024170 1103.855713 2356.475586 1460.188110 1640.984253 988.018982 1421.289673 1009.101868 1334.681152 1642.279419 1312.787354 1314.446045 1764.858398 1502.359619 2220.670166 1879.645874 1621.798950 2372.597412 1349.395630 2513.004883 694.515381 1434.023438 1179.573730 1917.758545 1261.071533 2108.174316 1296.428711 1195.843628 1676.686523 728.050415 2096.491699 1684.832397 2065.278320 1953.772827 1867.834839 804.006165 1718.222900 1712.566284 1154.058838 2287.815186 2014.296265 1506.711060 1979.798340 1436.994507 1665.947144 1284.424683 1626.870972 2106.040527 2157.354004 1166.349731 1165.696411 1810.938232 2092.275635 1512.186035 1896.780273 1605.530884 1446.987427 1687.565308 1284.424683 1344.165405 1412.605591 2271.580811 1023.496338 2309.398438 1770.866333 1191.734253 696.841248 1358.203613 1541.309570 1087.698853 1620.535767 1758.890991 2062.208008 1324.486328 1690.307007 861.958557 1825.235107 2051.028076 1362.651001 2092.275635 1779.955566 929.744385 2375.305908 1191.734253 704.867188 1353.785278 1248.211182 1513.285767 766.114868 1340.701050 1484.142700 1385.331543 1516.594727 2087.029053 1583.537231 1537.892090 2080.768066 2060.166260 1290.798950 1401.190552 1851.217041 2012.348145 1618.015503 1271.086182 1418.383057 1704.150757 1867.834839 2050.017822 2401.347900 1583.537231 1108.560425 1055.156128 1881.345337 2115.676758 1809.363525 2187.979004 1447.994385 1883.047974 1974.163208 1373.444214 1498.033081 1199.981567 1915.992676 1702.756104 1218.248291 1434.023438 1321.122559 2012.348145 1544.742432 1119.294189 1437.987549 1828.442871 2054.065186 1903.721924 1473.631714 1621.798950 1400.247681 2351.150391 2022.126343 713.080200 2078.689209 1345.034302 1180.912598 985.212097 1993.072754 1944.642944 1240.028564 2006.526489 1359.979126 1861.152100 2099.665039 2949.352295 1318.610840 2078.689209 621.124756 1179.573730 2364.509033 1646.177246 1970.424194 1099.771729 1549.343262 2061.186768 1698.586182 1914.229980 2050.017822 2071.446533 1917.758545 653.507507 889.977783 2073.510742 1393.682495 1979.798340 1596.905640 2010.403809 1429.098877 1398.365601 1550.497803 1783.005981 1654.028564 1383.489380 2248.263672 1803.091797 2108.174316 1626.870972 1722.490112 1297.236938 1773.885742 1072.008301 1270.310181 1512.186035 1506.711060 1413.565186 1933.799316 1403.080200 2311.964355 1895.052856 1628.143921 1438.982056 1838.134277 1795.313232 1088.267822 1346.775391 2208.883301 1431.064697 1620.535767 2024.093384 1502.359619 1361.759155 1910.714478 1231.223633 1736.868164 1503.445068 1412.605591 1473.631714 1407.826782 1277.328369 851.378052 1593.237427 1763.362671 1719.642944 2111.383057 1738.319092 1255.744141 2022.126343 1542.452148 1506.711060 1439.977905 1583.537231 1528.852295 1588.372559 2166.338379 1921.300049 1527.729858 1163.740479 1239.290039 1264.904541 1959.291870 1515.490112 917.446228 1499.112427 1582.333130 1048.774170 1741.228394 2154.004150 1801.530762 1877.949463 1582.333130 2411.086914 2088.076172 2516.043457 1345.034302 1742.686768 1046.663940 2130.842773 1704.150757 1966.699463 2491.937744 1896.780273 1621.798950 1919.527710 2509.973389 1340.701050 1557.461060 1612.998413 1199.981567 2196.061279 2038.969116 2236.182617 1558.627686 2149.553711 1939.205933 1286.807617 1822.038574 1175.575195 1455.082520 1612.998413 1957.448730 1068.156006 1332.971191 1803.091797 1601.822998 1985.465698 1684.832397 1919.527710 1993.072754 1363.543945 1424.208130 2008.463379 2092.275635 1472.588867 1193.100952 1399.306030 2683.130859 1502.359619 2485.983154 2171.991699 1402.134766 1739.772583 1598.132080 1884.753662 1741.228394 1334.681152 2635.551514 1541.309570 1130.852173 2255.574951 1976.037964 1436.994507 926.432739 2516.043457 1226.145020 952.732605 1644.875854 1712.566284 1352.026001 1751.488159 574.163330 928.085632 1665.947144 1183.599487 1443.974976 1326.174683 2372.597412 1506.711060 817.269470 2253.132568 1360.868530 1482.028442 1588.372559 1147.693359 1668.619141 1473.631714 1442.973633 1859.488770 1528.852295 2213.583008 2162.960449 1408.779907 1269.535034 1755.922363 939.822937 1067.060547 
linear_89_param_0 2137.409424 1690.307007 1340.701050 859.111450 2245.836914 1595.681030 1479.920288 1900.244751 1933.799316 1874.565796 1327.867310 910.222229 2347.172119 2006.526489 1540.168823 1826.837524 939.822937 1079.796631 1609.255981 1595.681030 1137.653320 2187.979004 2035.976562 1770.866333 853.473328 2311.964355 1923.075806 1812.515625 1456.100830 1676.686523 2055.079590 1188.331299 2028.038940 1365.333374 1778.434204 1466.362183 1436.994507 1370.729858 1496.955444 868.434082 1769.360596 1377.992065 1505.620850 1431.064697 2125.401367 1251.966309 1573.954590 2118.908447 1082.042603 1903.721924 1062.158203 1467.396362 1016.993164 1822.038574 1941.014893 2187.979004 1907.211792 2259.248535 1644.875854 1660.628906 1087.698853 1739.772583 2240.999512 1274.199585 1583.537231 1436.994507 2145.121582 1769.360596 1656.662476 811.531982 1398.365601 775.826965 1825.235107 1537.892090 1629.418945 2032.992676 1647.480591 1559.796143 1125.347778 1135.790405 1346.775391 1682.108276 1950.110596 1440.975098 1311.132935 1822.038574 1807.791504 1764.858398 1932.003662 1763.362671 1437.987549 1741.228394 2317.113525 1624.330933 679.989563 1290.798950 2119.987793 2250.695557 1655.344482 2077.651611 1268.760986 1633.255859 10269.058594 1076.444946 1343.297607 1959.291870 1680.749634 1476.769287 1695.817383 1457.120483 961.537903 1683.469238 1052.487549 1458.141602 1312.787354 1354.666626 2334.007812 1643.576660 1688.935059 1380.735229 2054.065186 1316.941772 1761.869629 1903.721924 1104.441650 1585.951172 1930.211548 1182.926636 944.087097 1278.113037 1879.645874 988.018982 2648.972656 2404.122559 2016.248047 1690.307007 1479.920288 1565.664429 1085.995850 1820.444458 1352.905029 2121.068359 1705.547485 1444.977783 1076.444946 631.300964 1796.863525 1400.247681 1864.487427 1100.353271 1866.159668 1826.837524 1640.984253 1148.326660 1767.857300 1766.356567 1189.010254 932.243713 1895.052856 1279.685059 895.339050 554.280212 1619.274658 1369.827515 1745.610718 1223.261597 1575.146118 1290.798950 2221.855957 1815.678833 1412.605591 1238.552368 1683.469238 1562.138184 913.418762 1537.892090 1511.087891 1213.983643 1268.760986 1834.892456 1807.791504 1529.976440 1309.482666 1248.211182 2345.848877 2096.491699 1385.331543 1755.922363 1229.041992 2267.866943 912.617554 2074.544434 1174.248291 575.115540 1271.863037 1669.958252 2164.085205 854.875916 1895.052856 1430.081055 1726.778442 1907.211792 2084.937988 1427.138550 2002.664062 1475.722046 1170.944336 1590.801270 2148.444092 2141.809570 1745.610718 1598.132080 1745.610718 1828.442871 1937.400391 1577.534546 2041.970581 1600.590820 1852.865479 1715.389893 1151.504150 1516.594727 1294.010010 1948.284668 1454.065674 1494.804565 1529.976440 2197.220703 1651.403198 1851.217041 1981.683838 1541.309570 1673.988770 942.376831 1212.568726 1772.374756 1793.765503 1003.263245 1490.521484 1626.870972 1194.470703 2094.381592 1849.571533 1346.775391 1531.102295 1226.145020 1130.852173 2085.982910 1796.863525 1137.653320 1590.801270 1539.029541 1243.734619 808.379150 1508.896362 1343.297607 
convdw_386_param_0 1795.313232 1600.590820 1655.344482 5099.921387 2893.974854 1245.223267 1221.108032 1247.462891 1606.770630 3356.077393 1223.981201 1239.290039 4169.875977 1517.700928 1647.480591 1213.275757 1218.961914 2791.104004 1360.868530 1327.020386 1301.293335 1786.066895 1526.609009 1319.447021 1343.297607 1900.244751 1246.715454 1620.535767 1253.474731 1671.299561 1311.959595 1656.662476 1798.416626 1498.033081 2463.905273 1177.571045 1628.143921 1644.875854 2539.070068 1208.343750 1525.489746 3541.732666 1472.588867 1528.852295 2700.542480 1312.787354 1274.980347 1786.066895 3892.924316 1491.589966 1917.758545 1935.598145 1155.340332 1964.842285 2258.022705 1300.479980 1527.729858 1337.254517 4662.785645 1231.223633 1787.601318 1313.616211 1661.955322 1198.599121 1217.535400 1286.807617 1428.118042 1683.469238 1320.284302 1180.912598 5318.256836 1124.131836 1764.858398 1795.313232 1799.972290 1405.924316 1266.444336 1245.968872 1168.970825 1469.468872 1231.952637 1325.329956 3676.268555 1562.138184 2065.278320 1363.543945 6276.826660 1526.609009 1652.714844 1223.981201 1244.478516 1337.254517 1764.858398 1322.802246 5436.363281 1643.576660 1493.731567 1234.144775 1623.063965 1343.297607 1244.478516 40281.050781 3686.037109 1205.543457 1230.495605 1644.875854 1504.532227 2121.068359 1679.393066 1650.093628 5056.544434 1302.922974 1593.237427 1332.117798 1446.987427 1299.667725 2475.631104 1279.685059 2159.593262 1611.749023 1568.024170 2251.913330 1206.942017 1187.652954 1191.052124 1255.744141 1193.100952 2236.182617 10410.346680 1275.762085 1280.472656 4246.465332 1665.947144 1893.328491 1563.311768 1094.564941 1380.735229 1265.673950 1443.974976 3526.725342 1231.952637 1513.285767 1319.447021 1281.261108 1453.050293 3566.011963 1469.468872 1265.673950 2183.387207 1747.076416 2020.163086 3243.597900 1937.400391 1092.840332 1690.307007 1987.361938 5597.224121 1257.261597 1907.211792 1165.696411 1699.973877 330444.531250 1312.787354 2128.662842 1190.370728 2164.085205 1457.120483 1511.087891 2774.357422 1631.974854 2198.381348 1264.136108 1483.084839 1261.071533 2633.883545 1254.986694 1299.667725 2245.836914 1761.869629 1442.973633 1330.414307 1283.632324 300777.312500 1214.692383 1839.759521 2301.734619 50827.921875 2154.004150 1097.451416 2791.104004 2586.411377 7125.917969 1248.211182 1741.228394 1527.729858 1410.690186 1728.212646 1183.599487 25728.197266 2063.230469 1745.610718 1942.827271 2033.986328 1211.862549 2588.020020 76887.500000 1324.486328 2702.296143 1593.237427 1725.346558 1234.144775 1274.199585 1347.647705 1458.141602 2103.911133 1237.815552 1702.756104 1354.666626 4366.774414 1258.021729 2084.937988 1289.998779 1440.975098 2478.580078 1646.177246 1185.622803 3035.401855 1592.018311 1901.981689 2966.169678 1382.570068 1572.764893 1351.148071 1232.682495 1278.898560 1309.482666 1308.659180 1155.982178 1388.104126 1084.298096 1404.026978 1205.543457 1529.976440 1513.285767 1989.261963 1849.571533 1207.642456 1733.973389 1718.222900 1311.959595 1179.573730 1686.197754 1189.010254 1140.146851 1263.368530 1397.426514 
linear_90_param_0 1506.711060 2573.615234 2140.707764 1565.664429 2237.385010 1286.012329 1786.066895 1758.890991 2125.401367 3015.605713 1582.333130 1593.237427 1359.979126 2097.548340 2883.947266 2300.462158 1951.939941 1748.544556 1719.642944 2481.536133 2707.570557 1103.270386 1709.751831 2376.662598 1654.028564 2284.048340 1806.222168 2355.142090 1977.916382 2133.027100 1919.527710 1709.751831 2130.842773 2197.220703 2063.230469 1092.266724 2947.263428 2328.783447 2008.463379 2344.527344 1844.652466 2074.544434 1687.565308 1741.228394 1502.359619 1595.681030 2382.104248 1761.869629 2425.137451 1536.756226 1462.240356 1672.643066 1939.205933 1830.051025 2178.814697 2112.454834 1170.285767 1124.131836 2096.491699 1521.029297 2064.253906 1843.018555 2054.065186 2238.588379 1809.363525 2152.889893 2665.942383 2654.040771 1721.065308 2360.485596 1659.304565 1767.857300 2535.975586 2502.427002 1772.374756 1462.240356 1302.107666 1334.681152 1290.798950 1784.535156 1799.972290 2384.834473 1129.011353 2049.008301 1368.026245 1422.261108 1248.960327 2311.964355 2301.734619 1560.966187 1776.915405 2219.485840 1898.510986 2327.480957 2829.052246 2866.071533 1638.400024 1305.375122 2481.536133 1886.462402 1908.961426 1939.205933 933.079834 2654.040771 2020.163086 2201.870850 2299.191162 1690.307007 1640.984253 2401.347900 1747.076416 2140.707764 3599.944580 845.840637 2545.281982 1806.222168 1539.029541 1663.283813 1581.130737 3526.725342 2261.704346 1365.333374 1694.436523 1831.661987 1122.312866 1879.645874 2294.121338 1764.858398 2156.236328 1629.418945 1389.030762 2528.272217 1939.205933 1826.837524 2303.008301 1755.922363 2022.126343 1354.666626 2443.650146 2092.275635 2071.446533 1847.928955 1893.328491 1253.474731 1233.413208 1647.480591 1421.289673 1501.275635 2386.201904 2817.559814 2219.485840 2319.696777 2046.992676 1812.515625 2657.430420 2154.004150 1914.229980 1585.951172 2712.865723 1156.624756 2390.313721 2375.305908 1871.194214 1129.011353 899.986145 2864.099121 1428.118042 2272.821289 2103.911133 2681.402100 1725.346558 1542.452148 1590.801270 1776.915405 1968.560059 1442.973633 1383.489380 2602.586670 2297.921631 2140.707764 1701.363892 2554.656738 1245.223267 1919.527710 1514.387207 2337.941650 2287.815186 1895.052856 2022.126343 1817.264648 2083.893799 3236.031006 1976.037964 1778.434204 2460.991211 403.249603 2597.712891 1434.023438 2583.200439 1197.219849 1643.576660 1624.330933 1368.926270 1629.418945 1070.904785 2659.128418 2046.992676 3305.429688 2221.855957 2039.968628 1667.282104 2462.447266 1773.885742 2053.051758 1798.416626 2091.224121 2002.664062 2462.447266 2336.628906 1921.300049 2348.496582 1331.265503 1421.289673 1912.470581 1722.490112 2301.734619 2250.695557 2877.964111 2087.029053 1367.127441 1970.424194 1512.186035 1430.081055 1345.904297 1755.922363 1903.721924 2196.061279 1242.991577 1537.892090 1941.014893 1713.976929 2160.714355 1754.441772 1624.330933 1478.868530 1767.857300 1374.351440 2422.314209 1891.607300 1563.311768 1686.197754 2089.124512 2834.833740 1914.229980 2367.198975 983.349731 1633.255859 2189.129883 1298.046143 1806.222168 2627.232422 1631.974854 2228.996338 1339.837769 1907.211792 1248.960327 1697.200684 1339.837769 1584.743286 1396.488647 1937.400391 2529.809082 2213.583008 1787.601318 1499.112427 2367.198975 1928.422607 1547.039429 2251.913330 1769.360596 2237.385010 1603.057007 2170.858643 2039.968628 2535.975586 1881.345337 2565.681885 900.765381 1566.843384 1400.247681 1065.421387 2449.403076 2456.632812 2030.017578 2391.687256 2357.810791 2091.224121 2038.969116 2364.509033 2049.008301 1449.002808 1521.029297 1400.247681 1169.627930 1013.032104 1701.363892 2573.615234 2413.884033 2130.842773 2834.833740 1566.843384 2676.229004 1951.939941 2823.294434 2596.092285 1752.963745 1650.093628 1792.220459 1240.028564 1282.840942 1826.837524 1202.061279 1600.590820 2422.314209 1225.422852 2213.583008 964.211304 1758.890991 2620.614502 1628.143921 1174.911377 2028.038940 2258.022705 1552.811890 1917.758545 2225.420410 2453.735840 1477.818237 1977.916382 1751.488159 2016.248047 1344.165405 3508.883545 960.650024 1830.051025 2248.263672 1688.935059 2020.163086 1435.012451 1694.436523 2460.991211 1667.282104 1234.144775 1761.869629 1324.486328 2662.531006 1534.489624 2914.240967 2356.475586 1793.765503 1493.731567 1711.157837 1623.063965 1852.865479 2477.104736 2041.970581 1404.974976 3358.786133 1804.655640 3131.328857 2817.559814 1359.090820 1970.424194 1459.164062 2112.454834 1884.753662 1528.852295 2002.664062 1081.480225 1642.279419 1352.026001 1330.414307 1174.248291 961.537903 2789.233154 1323.643799 2891.963867 1776.915405 1628.143921 1831.661987 1725.346558 2848.416260 2208.883301 2097.548340 2483.016602 2745.076416 1271.086182 1926.637085 2070.416016 2121.068359 1286.012329 1044.562256 2481.536133 2294.121338 1346.775391 2142.912354 2426.551514 1306.194580 1846.289307 1516.594727 915.830994 1283.632324 1282.050537 1498.033081 2049.008301 1357.317627 1851.217041 1854.516968 2260.475830 2617.318359 1531.102295 2225.420410 635.543091 3071.244385 1891.607300 1760.379028 1488.389160 1841.387573 1839.759521 2053.051758 2062.208008 1903.721924 1383.489380 1179.573730 1673.988770 2868.046875 2406.903320 1070.353882 2014.296265 2158.473145 1603.057007 1589.585938 1594.458252 1895.052856 2877.964111 2494.925781 2082.850830 2850.367188 1470.507446 1779.955566 1509.991333 1728.212646 1115.693237 1021.988220 2340.571533 1687.565308 2450.845703 2319.696777 1820.444458 1687.565308 1793.765503 2215.940430 2173.125732 1930.211548 1489.454590 1542.452148 1174.911377 2553.089600 2474.159424 2480.057129 1498.033081 1852.865479 1989.261963 2642.245117 961.537903 2124.316406 1831.661987 1478.868530 2151.776611 1939.205933 2416.687500 2322.285645 1577.534546 1772.374756 2369.895264 1989.261963 1886.462402 2291.594727 1941.014893 1796.863525 2080.768066 2322.285645 1833.275757 2139.607178 2142.912354 1369.827515 2583.200439 2906.100586 2806.160400 1401.190552 1387.178711 2244.625732 2210.056396 1131.467041 1857.828613 1935.598145 840.374817 1470.507446 1578.731445 2367.198975 2500.923096 2146.228027 2698.791260 2765.140137 1531.102295 2156.236328 2572.024658 2126.487549 2904.072510 2372.597412 2006.526489 2386.201904 1854.516968 2688.330811 1404.026978 1165.043701 2212.406250 2044.980835 2276.551514 1676.686523 979.645935 1874.565796 1959.291870 1704.150757 1513.285767 1009.101868 1286.807617 2301.734619 1248.211182 1964.842285 2245.836914 2089.124512 1327.867310 1946.462158 2573.615234 1866.159668 1846.289307 1905.465210 2079.728027 976.886414 1839.759521 969.602966 2164.085205 2161.836914 2604.215332 2459.536621 2830.976807 2032.000000 1199.289917 2258.022705 1772.374756 2416.687500 2223.042725 1346.775391 1809.363525 2106.040527 1371.633545 1654.028564 1915.992676 2248.263672 1289.199463 1968.560059 1741.228394 3167.074463 1410.690186 2602.586670 1623.063965 559.346252 1869.513062 2167.466553 1604.292969 1147.060669 2056.094971 1844.652466 1551.653931 1657.982422 2397.198242 1663.283813 1623.063965 1985.465698 1977.916382 1297.236938 1718.222900 1818.853149 2176.535645 1295.621460 2214.760986 1619.274658 1467.396362 2065.278320 1682.108276 1702.756104 1112.710205 1757.405396 1534.489624 1562.138184 2732.459717 2397.198242 2157.354004 1480.973633 2020.163086 2815.653564 1861.152100 1760.379028 2376.662598 2218.302734 2487.469238 1314.446045 1216.112183 2409.690674 1760.379028 1712.566284 1297.236938 1886.462402 2462.447266 2020.163086 2185.680664 1611.749023 1582.333130 1517.700928 1544.742432 2171.991699 2615.673096 2032.000000 2437.923828 1917.758545 2254.353271 1482.028442 2433.646729 2739.655029 1076.444946 2648.972656 2256.798340 1856.171265 2508.460449 1274.980347 2388.941406 1704.150757 2466.826416 1275.762085 2058.128662 2500.923096 2484.499023 1322.802246 1601.822998 2139.607178 1125.347778 1726.778442 1665.947144 2575.208008 1789.138428 2650.659912 1492.659912 1551.653931 2633.883545 2466.826416 1418.383057 1849.571533 1132.698975 1852.865479 1702.756104 2214.760986 520.712708 2182.242188 2149.553711 1773.885742 2648.972656 2085.982910 2100.724854 2817.559814 1544.742432 3089.484863 1914.229980 1347.647705 3258.837891 1695.817383 1487.325195 1495.879272 2652.349365 2494.925781 3198.720947 1664.614380 2093.327881 1257.261597 2062.208008 1650.093628 2151.776611 2204.203369 2074.544434 1411.647217 2115.676758 1593.237427 1638.400024 2034.980957 2564.101074 2166.338379 1704.150757 906.257812 1917.758545 1557.461060 1951.939941 1302.922974 2531.347900 895.339050 2145.121582 2335.317627 2442.216064 1981.683838 2147.335449 1327.020386 2248.263672 1436.002808 2193.745850 1499.112427 2567.264648 3394.401367 2006.526489 2596.092285 1346.775391 2562.522217 1716.805298 1729.649170 1961.138550 1398.365601 3026.571533 1437.987549 2525.203857 1871.194214 1974.163208 1450.012573 882.429199 1807.791504 1955.609009 1872.878540 1177.571045 2164.085205 2205.371582 2442.216064 2781.775391 1467.396362 1318.610840 1310.307251 1921.300049 1725.346558 1830.051025 1175.575195 1560.966187 1555.133057 1772.374756 1715.389893 2060.166260 1616.758301 1852.865479 2373.950928 2179.956055 2075.579102 2251.913330 1766.356567 1915.992676 2813.749756 2472.689209 1466.362183 1647.480591 2054.065186 2684.861816 1951.939941 2572.024658 1358.203613 1514.387207 2154.004150 1528.852295 2772.509033 1638.400024 2677.951172 1589.585938 2296.653320 2034.980957 1991.165527 2250.695557 1862.818237 2026.064209 508.994141 2460.991211 1578.731445 1657.982422 2135.216064 2230.190674 2452.290039 1669.958252 3171.902344 1859.488770 1993.072754 580.895569 2079.728027 1287.604004 2123.232666 1455.082520 1893.328491 1406.874878 1002.296753 1786.066895 1760.379028 1290.798950 1316.108765 2745.076416 1977.916382 1407.826782 1864.487427 1522.141968 2093.327881 2136.312012 3261.391846 2442.216064 1492.659912 1951.939941 1269.535034 1970.424194 2337.941650 2704.052002 2743.267090 1712.566284 1429.098877 2290.333496 1444.977783 2446.523193 2895.988770 1833.275757 2128.662842 2443.650146 1278.113037 2348.496582 2204.203369 1536.756226 1460.188110 1706.946655 1535.622192 1299.667725 2076.614746 2230.190674 2054.065186 2413.884033 1905.465210 2331.392822 1388.104126 1747.076416 1876.256104 3377.870117 1628.143921 1787.601318 1478.868530 1507.802856 1962.988647 2205.371582 1124.131836 1523.256226 1901.981689 1457.120483 2376.662598 2372.597412 1792.220459 3048.744385 2024.093384 2072.478027 2176.535645 1760.379028 2014.296265 1914.229980 1339.837769 3181.602539 1387.178711 1598.132080 1671.299561 1675.336548 2101.785889 1926.637085 1964.842285 1518.808716 1638.400024 1310.307251 1495.879272 2519.089600 2193.745850 1993.072754 1397.426514 768.378113 2200.706543 2716.407227 2303.008301 1704.150757 2707.570557 2054.065186 1776.915405 1366.229858 1764.858398 1872.878540 2219.485840 2674.509033 1544.742432 1866.159668 1440.975098 1205.543457 1397.426514 2313.249512 1919.527710 2100.724854 1659.304565 1504.532227 999.408264 2292.857422 1961.138550 2303.008301 2430.803711 1815.678833 1787.601318 1806.222168 1625.599976 1764.858398 812.799988 2244.625732 3394.401367 1150.867310 1403.080200 2026.064209 2272.821289 1859.488770 1907.211792 1637.110962 1088.267822 2087.029053 1499.112427 1722.490112 2121.068359 2390.313721 1783.005981 2458.083984 1435.012451 2811.848633 2425.137451 1862.818237 2006.526489 1784.535156 2159.593262 1345.904297 1823.635376 1754.441772 2830.976807 1393.682495 2149.553711 1729.649170 1508.896362 2695.295410 2327.480957 1712.566284 1316.108765 1754.441772 1741.228394 2292.857422 1121.103394 1964.842285 1856.171265 1985.465698 2478.580078 1985.465698 1900.244751 2081.808838 2718.181641 1006.174072 2004.593506 2340.571533 1977.916382 1358.203613 1441.973633 2250.695557 1826.837524 2436.496582 2048.000000 1985.465698 2190.282227 2265.397949 1399.306030 584.485413 1532.229736 1041.946899 1826.837524 2516.043457 1378.905273 2251.913330 1437.987549 1186.975464 1196.531372 2064.253906 1524.372192 1744.147583 1195.843628 2055.079590 2519.089600 1812.515625 1223.261597 2690.068604 1275.762085 1230.495605 1595.681030 1624.330933 2123.232666 2413.884033 1993.072754 1757.405396 1987.361938 1895.052856 1723.917114 2490.446533 1968.560059 2353.810059 1701.363892 
linear_91_param_0 1522.141968 1375.259766 1989.261963 2107.106934 2161.836914 2331.392822 2426.551514 2369.895264 1668.619141 1708.348145 2460.991211 2509.973389 2305.560059 1496.955444 2320.990479 2296.653320 2212.406250 1678.038696 2513.004883 2607.478760 2281.543945 1604.292969 2054.065186 2640.568604 2437.923828 2254.353271 2295.386719 1571.577026 2589.630371 2048.000000 3221.003174 1323.643799 2006.526489 1221.108032 1624.330933 2178.814697 2004.593506 2484.499023 1032.639160 2233.781982 1812.515625 1230.495605 2567.264648 1403.080200 727.032837 2413.884033 2341.888672 1208.343750 3128.974365 2063.230469 1723.917114 1643.576660 2397.198242 1767.857300 1722.490112 1667.282104 2102.847900 2519.089600 1129.011353 2236.182617 1640.984253 2642.245117 1924.854736 2478.580078 2630.553711 2638.894043 2171.991699 2723.518311 2860.162109 2004.593506 1612.998413 2511.488281 1910.714478 2088.076172 1852.865479 3203.645996 2089.124512 1826.837524 1245.968872 2367.198975 2154.004150 2519.089600 1820.444458 2043.976440 1230.495605 1798.416626 3236.031006 1416.452026 1484.142700 1974.163208 1775.399292 2065.278320 2155.119629 2052.039551 995.582764 3422.315674 1930.211548 2554.656738 900.765381 2570.436035 2294.121338 3559.911133 1962.988647 2117.830078 2540.620361 2834.833740 2170.858643 1465.329590 2048.000000 1465.329590 945.803650 2008.463379 853.473328 2305.560059 2326.179932 2233.781982 1451.023682 1901.981689 2736.052490 869.886292 1750.015137 1434.023438 1935.598145 1392.749634 2226.611084 1249.710571 2290.333496 962.427368 1556.296143 2872.005615 2189.129883 1067.060547 2502.427002 2171.991699 2340.571533 2352.479248 2063.230469 2289.073730 2437.923828 2243.415527 2297.921631 2750.519531 2376.662598 2413.884033 2474.159424 761.628113 2344.527344 2062.208008 2148.444092 1583.537231 2128.662842 2174.261230 2112.454834 2149.553711 1736.868164 1564.487183 1085.995850 2247.049561 1998.816528 2272.821289 1518.808716 655.979797 2672.791260 2468.289551 2215.940430 1374.351440 1718.222900 2401.347900 2083.893799 2617.318359 1009.101868 2317.113525 2304.283447 2330.087402 1544.742432 2347.172119 2655.734619 1245.968872 2080.768066 2349.822754 2279.044922 1423.233887 1329.564209 2098.606201 3196.264160 1291.600220 2160.714355 1150.231079 852.075378 1648.786011 1144.536865 1946.462158 1966.699463 975.969971 1688.935059 2050.017822 1849.571533 2115.676758 2347.172119 1876.256104 1723.917114 1968.560059 1470.507446 2056.094971 1569.206665 721.486816 1544.742432 2010.403809 2551.524170 1926.637085 2182.242188 1629.418945 2117.830078 2363.166504 1552.811890 2383.468506 2244.625732 809.007751 2020.163086 1784.535156 1812.515625 2165.211182 2332.699463 1452.036255 2145.121582 1807.791504 1635.823853 2667.651367 2256.798340 1864.487427 2620.614502 2488.957031 2244.625732 2203.036621 2185.680664 2393.062744 1640.984253 1267.215576 2330.087402 2317.113525 2010.403809 2700.542480 2169.726807 2228.996338 1867.834839 1307.015015 1948.284668 2156.236328 2119.987793 2096.491699 2575.208008 2367.198975 1826.837524 650.646667 2299.191162 1630.695923 
convdw_387_param_0 1353.785278 1708.348145 1274.199585 1224.701538 2265.397949 1898.510986 2089.124512 1390.887695 1172.924438 2232.583740 1755.922363 1480.973633 2169.726807 1167.003906 5747.978027 1192.417236 2459.536621 1170.285767 1374.351440 1268.760986 1948.284668 1078.677002 1049.832520 1248.960327 1883.047974 1130.852173 1463.268677 1223.981201 1545.890015 1210.452637 1606.770630 1593.237427 1118.692505 1930.211548 1237.815552 1542.452148 1453.050293 1733.973389 1243.734619 1896.780273 1344.165405 1282.840942 1247.462891 1877.949463 2505.440186 1966.699463 1397.426514 1424.208130 6407.291992 1138.275757 1392.749634 1179.573730 7756.823730 1216.823364 1096.295044 5237.930664 1163.089966 1159.848389 1606.770630 2038.969116 2906.100586 1652.714844 1202.756104 2214.760986 3569.070312 1801.530762 1202.061279 1395.552002 1330.414307 6695.955078 1592.018311 2102.847900 1352.905029 1351.148071 1672.643066 1573.954590 1726.778442 1297.236938 1815.678833 1266.444336 1488.389160 1442.973633 984.280029 1522.141968 1322.802246 4884.432129 2487.469238 1103.855713 1199.981567 4598.382324 3334.564209 1153.419067 1106.203125 1751.488159 5192.184570 2185.680664 1176.905029 1515.490112 1148.326660 1378.905273 3511.844727 1843.018555 2508.460449 6133.435547 1792.220459 1204.148193 1101.518311 1155.340332 1178.905396 1150.231079 4124.416016 1702.756104 2850.367188 2168.596191 1204.845337 3071.244385 1128.399170 1363.543945 1124.131836 1410.690186 6305.357422 1186.298706 2633.883545 3369.664795 1298.046143 1319.447021 1294.010010 2000.738403 8232.514648 2242.206787 1830.051025 1332.971191 1655.344482 1125.956665 1178.237793 3107.943359 1701.363892 2187.979004 1328.715210 3315.964844 2730.666748 1430.081055 1143.907593 2213.583008 1787.601318 5131.363770 1140.771973 1655.344482 1129.011353 1398.365601 1078.677002 1131.467041 1184.947632 3164.666260 1202.756104 1332.971191 1836.511963 1713.976929 1220.391846 1744.147583 1733.973389 325596.937500 1271.086182 1122.918457 4986.861816 1176.905029 7614.887695 1316.941772 1112.115479 1296.428711 1370.729858 2173.125732 1122.918457 1672.643066 3676.268555 1211.862549 1196.531372 1812.515625 1139.522461 1245.968872 1329.564209 1555.133057 22740.634766 2399.963135 1106.791504 1264.904541 1728.212646 5824.403320 3022.175781 1271.086182 2110.312256 1165.696411 2207.711426 3046.512451 1874.565796 1157.268066 1735.419556 2073.510742 1052.487549 3470.839111 1127.787476 1116.291870 1544.742432 1830.051025 1314.446045 1618.015503 4694.344238 2149.553711 1460.188110 1100.353271 2194.902832 2192.590088 1392.749634 1195.843628 1572.764893 2124.316406 1205.543457 1531.102295 5404.592285 1760.379028 1057.838379 5251.149414 1866.159668 1192.417236 1103.855713 3728.974854 1264.136108 1254.230225 1088.837280 3867.598633 1583.537231 1284.424683 1359.090820 1910.714478 5383.617188 1384.409790 7101.597168 2159.593262 2088.076172 1825.235107 2271.580811 1329.564209 1213.983643 1085.995850 1216.823364 1285.218018 1962.988647 1063.243774 1213.983643 2155.119629 1908.961426 1367.127441 1987.361938 3356.077393 2842.579346 1549.343262 
linear_92_param_0 1289.998779 2579.997559 2583.200439 2600.959961 1818.853149 1331.265503 1547.039429 1420.319458 2628.892090 2211.230713 1322.802246 1799.972290 1715.389893 1412.605591 2635.551514 2531.347900 1739.772583 2711.098389 1866.159668 1402.134766 956.235291 2605.845947 2622.265869 1723.917114 2373.950928 1826.837524 1587.160889 1974.163208 1308.659180 833.641052 2148.444092 2373.950928 1129.011353 1335.537842 2084.937988 1581.130737 899.208313 1615.503052 1161.142822 1626.870972 3098.686523 1359.979126 2068.357910 2664.235596 2765.140137 1575.146118 2679.675537 2469.754395 1639.691040 2331.392822 1772.374756 2109.242676 1549.343262 1311.132935 1883.047974 1067.060547 3157.462891 2846.467773 2154.004150 1640.984253 2798.612061 985.212097 1789.138428 1789.138428 2883.947266 1250.461548 848.600342 1360.868530 1089.978027 1669.958252 1844.652466 2267.866943 2445.085693 2332.699463 1405.924316 1910.714478 1926.637085 2485.983154 2331.392822 1901.981689 2309.398438 1353.785278 1009.101868 1736.868164 1480.973633 1862.818237 2906.100586 2475.631104 1244.478516 2145.121582 2721.737061 1059.454224 1745.610718 1211.157104 1542.452148 2210.056396 2223.042725 3044.283936 2114.601562 1616.758301 2102.847900 2870.024902 1977.916382 1291.600220 1220.391846 2271.580811 1891.607300 2264.165283 2623.919189 1825.235107 2426.551514 1163.740479 2020.163086 2691.808594 2375.305908 1140.146851 1874.565796 2584.804932 2146.228027 2830.976807 2369.895264 1462.240356 2305.560059 2657.430420 2912.201660 1891.607300 2723.518311 1823.635376 2071.446533 2109.242676 2270.341553 2359.147461 2177.674561 2390.313721 2789.233154 2654.040771 1465.329590 2691.808594 2391.687256 2137.409424 3055.459717 823.088623 1669.958252 1680.749634 1818.853149 1455.082520 1921.300049 3759.291748 1477.818237 2068.357910 1804.655640 1430.081055 1596.905640 2607.478760 1420.319458 2442.216064 1604.292969 1849.571533 2596.092285 2247.049561 1955.609009 1171.603638 3248.661865 1932.003662 2776.208252 2071.446533 1159.202271 2266.631836 1508.896362 2936.863770 1693.057739 2223.042725 2789.233154 2155.119629 1365.333374 1499.112427 1582.333130 2204.203369 2081.808838 2549.960693 2133.027100 2970.404053 2440.783691 2145.121582 2418.091797 2406.903320 1248.960327 2610.750244 1555.133057 2483.016602 1163.089966 1729.649170 2286.558350 1199.981567 2953.538574 1372.538208 1754.441772 2781.775391 1118.692505 2159.593262 2190.282227 2305.560059 2509.973389 1708.348145 1790.678101 2741.459717 2290.333496 1410.690186 2625.574707 1242.991577 2643.923828 1316.108765 2734.254883 1747.076416 1318.610840 1156.624756 1447.994385 2282.795410 2178.814697 1167.003906 1250.461548 1961.138550 2783.636230 1365.333374 2594.473877 2173.125732 1921.300049 1414.526123 2632.217529 1341.565430 1646.177246 2508.460449 2004.593506 2066.303955 2190.282227 1968.560059 1378.905273 1844.652466 3068.979248 1795.313232 2340.571533 1318.610840 1221.825073 2545.281982 2310.680664 1466.362183 2084.937988 1062.700684 1953.772827 2637.221680 2373.950928 2945.177734 2328.783447 1854.516968 1861.152100 2791.104004 1265.673950 2087.029053 1705.547485 840.374817 2347.172119 2232.583740 1790.678101 2250.695557 1013.032104 2073.510742 1937.400391 1427.138550 2397.198242 2808.053955 2204.203369 2154.004150 2683.130859 3453.556885 1572.764893 1549.343262 2462.447266 2116.752686 1888.174194 1697.200684 1831.661987 2024.093384 1371.633545 2165.211182 1584.743286 2087.029053 2949.352295 2620.614502 2567.264648 2427.967285 1712.566284 1247.462891 1577.534546 2328.783447 1221.825073 1213.983643 2688.330811 1721.065308 1932.003662 1741.228394 2565.681885 2648.972656 3174.321777 2711.098389 1601.822998 2423.725098 2804.269531 2618.965332 1786.066895 2384.834473 2494.925781 1895.052856 2427.967285 582.195862 1269.535034 2819.468750 2340.571533 2922.427002 2543.726074 2352.479248 2481.536133 1234.144775 2560.945312 1849.571533 2179.956055 1778.434204 1443.974976 1741.228394 2059.146973 2144.016602 2704.052002 2262.934082 1686.197754 2494.925781 2051.028076 1555.133057 2046.992676 2398.579834 1664.614380 1729.649170 1896.780273 1251.213501 1801.530762 1959.291870 2240.999512 1122.312866 1350.271240 2240.999512 1577.534546 2280.293701 1346.775391 2554.656738 1488.389160 981.494324 1859.488770 2184.533447 1243.734619 2238.588379 1862.818237 981.494324 1876.256104 1415.488403 1001.332031 2502.427002 979.645935 985.212097 2315.824219 2212.406250 1615.503052 1592.018311 2194.902832 1836.511963 1966.699463 3228.499512 2399.963135 1625.599976 1615.503052 1128.399170 2010.403809 3256.287842 2532.888672 1639.691040 1405.924316 2734.254883 2355.142090 1966.699463 1675.336548 2718.181641 1843.018555 2008.463379 1693.057739 2364.509033 2341.888672 2184.533447 2152.889893 3225.996826 2705.810059 2124.316406 1338.975586 866.986694 3042.058594 3037.617432 2150.664551 1217.535400 1891.607300 2336.628906 2516.043457 2028.038940 1581.130737 1346.775391 2732.459717 2237.385010 1708.348145 1910.714478 1470.507446 2614.030029 1754.441772 1405.924316 2169.726807 2217.120850 1861.152100 2420.905273 1088.267822 2192.590088 1695.817383 2100.724854 1346.775391 1585.951172 1798.416626 2415.284912 2118.908447 1879.645874 1739.772583 2228.996338 1676.686523 1539.029541 1767.857300 2026.064209 2313.249512 2285.302490 2490.446533 2852.320801 2480.057129 2545.281982 2462.447266 1864.487427 2048.000000 1661.955322 1245.968872 1828.442871 2060.166260 2540.620361 1388.104126 2205.371582 2317.113525 1687.565308 1443.974976 1490.521484 2388.941406 2693.550781 2210.056396 2523.672607 1512.186035 2038.969116 1838.134277 2472.689209 2522.143066 2194.902832 2154.004150 1742.686768 2576.802490 781.655884 2575.208008 1124.131836 2296.653320 2111.383057 2284.048340 1979.798340 1509.991333 1506.711060 2386.201904 3179.171875 1839.759521 1413.565186 2304.283447 1951.939941 1716.805298 2100.724854 3100.995605 1932.003662 1814.095947 2348.496582 1650.093628 1654.028564 1781.479492 1715.389893 1242.249512 1825.235107 1478.868530 1798.416626 2757.810547 2707.570557 1390.887695 2384.834473 859.821472 2402.734375 2138.507812 2347.172119 2415.284912 2041.970581 1600.590820 2192.590088 2528.272217 1907.211792 2356.475586 1633.255859 2554.656738 2000.738403 2700.542480 1964.842285 2357.810791 1635.823853 1366.229858 2285.302490 1758.890991 1706.946655 2372.597412 2553.089600 1900.244751 1792.220459 2372.597412 2906.100586 1884.753662 1867.834839 1702.756104 2371.245605 2048.000000 1664.614380 1712.566284 2842.579346 1654.028564 2721.737061 1639.691040 964.211304 1083.169189 1763.362671 2122.149902 987.081604 1630.695923 2018.203735 2442.216064 1253.474731 1361.759155 2883.947266 2813.749756 1348.521118 2490.446533 1462.240356 2390.313721 3028.774414 1633.255859 2303.008301 987.081604 1303.739380 1876.256104 2359.147461 2085.982910 1651.403198 2223.042725 2754.160156 1907.211792 2579.997559 2223.042725 1595.681030 3013.422119 1231.952637 1836.511963 1895.052856 1046.137817 2070.416016 2664.235596 926.432739 2502.427002 2808.053955 2529.809082 1854.516968 2191.435547 2627.232422 973.231079 1445.981934 1679.393066 2008.463379 621.495789 2351.150391 2379.380127 988.018982 2237.385010 2165.211182 1000.369202 2500.923096 2289.073730 2145.121582 1907.211792 3337.238281 2364.509033 2206.540771 1251.213501 2796.731201 1701.363892 2957.737061 1869.513062 2327.480957 1290.798950 3650.470215 2204.203369 2261.704346 2815.653564 2983.179932 2815.653564 2101.785889 1983.572876 1896.780273 2002.664062 1964.842285 3491.221436 1621.798950 1380.735229 1993.072754 1994.983643 1633.255859 2319.696777 2310.680664 2821.380371 2099.665039 1755.922363 2236.182617 2032.992676 1748.544556 2334.007812 1187.652954 1489.454590 2069.386475 2318.404541 1683.469238 2378.020508 2169.726807 1416.452026 1589.585938 2104.975098 1264.904541 3114.922119 2000.738403 1621.798950 1555.133057 1267.987793 1348.521118 1472.588867 1631.974854 1093.989502 2542.172363 1164.391724 2038.969116 1515.490112 1976.037964 2041.970581 2042.973022 1646.177246 2087.029053 1513.285767 1661.955322 1828.442871 1961.138550 3131.328857 2055.079590 1702.756104 1616.758301 2676.229004 1552.811890 1425.183594 2502.427002 1456.100830 1528.852295 1912.470581 1905.465210 2190.282227 2274.063477 2161.836914 1996.898315 2099.665039 1377.080078 1893.328491 1764.858398 1836.511963 1218.248291 2422.314209 1716.805298 2258.022705 1924.854736 1917.758545 1930.211548 1893.328491 3136.048340 1996.898315 2382.104248 1123.524780 2144.016602 1289.998779 2462.447266 1419.350586 776.405945 1154.058838 919.879761 1272.640991 1623.063965 1619.274658 1847.928955 1047.718018 1663.283813 1810.938232 2592.857422 2071.446533 1748.544556 1783.005981 1589.585938 2677.951172 2588.020020 971.413635 2610.750244 1458.141602 1110.335083 2804.269531 1557.461060 1915.992676 1315.276855 2073.510742 3105.623779 1974.163208 2469.754395 2415.284912 1876.256104 2217.120850 1299.667725 1766.356567 2304.283447 1732.529541 1347.647705 1976.037964 1784.535156 2827.130371 979.645935 1529.976440 1069.253906 1521.029297 1308.659180 2602.586670 1985.465698 1618.015503 3269.077881 1723.917114 2052.039551 1429.098877 2372.597412 2500.923096 1810.938232 1994.983643 1961.138550 2468.289551 1246.715454 1414.526123 2645.604492 2179.956055 2442.216064 2044.980835 2985.319824 1908.961426 2043.976440 2082.850830 1345.904297 2276.551514 2139.607178 1548.190430 2614.030029 1389.030762 1901.981689 1826.837524 1841.387573 1708.348145 2951.444092 2425.137451 2415.284912 1410.690186 1784.535156 1764.858398 1849.571533 2176.535645 2627.232422 2652.349365 601.030640 1693.057739 2659.128418 1527.729858 1789.138428 1307.015015 2765.140137 1154.699219 2466.826416 1857.828613 2199.543457 2073.510742 1828.442871 2061.186768 1844.652466 2402.734375 2356.475586 2932.724365 1893.328491 2610.750244 2630.553711 2754.160156 1961.138550 1998.816528 2364.509033 1634.538940 2109.242676 2305.560059 2149.553711 1528.852295 2232.583740 1793.765503 2487.469238 1946.462158 3453.556885 1305.375122 1738.319092 2112.454834 2336.628906 3442.130615 2445.085693 1606.770630 2789.233154 2191.435547 2053.051758 2198.381348 1629.418945 2256.798340 2827.130371 1402.134766 2310.680664 2557.797119 3080.337646 1410.690186 2155.119629 2266.631836 2947.263428 1139.522461 2028.038940 2154.004150 2057.111328 1521.029297 1424.208130 1801.530762 2349.822754 1148.960815 1823.635376 2556.226074 1876.256104 2232.583740 1488.389160 2274.063477 2565.681885 2128.662842 2228.996338 2702.296143 1557.461060 2044.980835 2691.808594 1820.444458 1959.291870 1733.973389 1783.005981 2825.211182 2250.695557 2761.470459 1245.968872 1441.973633 2415.284912 2213.583008 1735.419556 1604.292969 2198.381348 2490.446533 2627.232422 2026.064209 2128.662842 1306.194580 919.879761 2429.384766 1389.958618 1461.213501 1596.905640 2570.436035 2402.734375 2834.833740 2074.544434 1449.002808 2499.421143 2372.597412 2589.630371 1830.051025 1704.150757 3011.241699 2335.317627 1678.038696 1944.642944 1352.905029 1389.958618 2332.699463 1910.714478 2408.296387 1854.516968 2412.484619 2091.224121 2147.335449 2529.809082 1919.527710 2875.975098 1367.127441 2455.183594 1957.448730 2683.130859 2985.319824 790.565369 1165.043701 2462.447266 2006.526489 1889.889160 2614.030029 2184.533447 2620.614502 2368.546387 2318.404541 1483.084839 1876.256104 2131.934326 1715.389893 1140.146851 1809.363525 1905.465210 832.973572 1704.150757 1629.418945 1320.284302 1274.980347 2732.459717 2487.469238 1475.722046 2551.524170 939.822937 2328.783447 2466.826416 2419.497559 2080.768066 2076.614746 2106.040527 2221.855957 2186.829102 1463.268677 2373.950928 1991.165527 2809.949951 1818.853149 3188.916504 1599.360474 2322.285645 2993.910889 1619.274658 1891.607300 1304.556763 2199.543457 2295.386719 1494.804565 1132.698975 2068.357910 1354.666626 2809.949951 1862.818237 3162.261475 1872.878540 2334.007812 2166.338379 2238.588379 1748.544556 2185.680664 1291.600220 1755.922363 2275.306641 3011.241699 2576.802490 1926.637085 1781.479492 1985.465698 988.018982 2053.051758 1386.254517 1499.112427 1679.393066 2792.977295 2827.130371 1946.462158 1517.700928 1294.010010 1739.772583 1396.488647 2437.923828 1810.938232 2034.980957 1852.865479 2854.277100 1068.704712 2008.463379 1566.843384 2693.550781 2317.113525 2347.172119 
linear_93_param_0 1959.291870 1828.442871 1823.635376 1669.958252 1270.310181 1761.869629 2285.302490 1912.470581 2548.399170 806.499207 2287.815186 2057.111328 1668.619141 2443.650146 2311.964355 2637.221680 2323.582275 1420.319458 2028.038940 1836.511963 1744.147583 1531.102295 1822.038574 2160.714355 2113.527588 1358.203613 1793.765503 2161.836914 2543.726074 2098.606201 2781.775391 1639.691040 1488.389160 1932.003662 1919.527710 1702.756104 1972.291992 1795.313232 1204.845337 2334.007812 1709.751831 1657.982422 2260.475830 2103.911133 1948.284668 2337.941650 1983.572876 1630.695923 2674.509033 1695.817383 1891.607300 1852.865479 2772.509033 2567.264648 2458.083984 2264.165283 1950.110596 2330.087402 1233.413208 2033.986328 2212.406250 1944.642944 2255.574951 2109.242676 2077.651611 2230.190674 2118.908447 2106.040527 2638.894043 2573.615234 2186.829102 1989.261963 2600.959961 2253.132568 2184.533447 2625.574707 2794.853027 1823.635376 1944.642944 2378.020508 1915.992676 2578.398926 1257.261597 1719.642944 1248.960327 2390.313721 1436.994507 1998.816528 1650.093628 2314.536133 1454.065674 2304.283447 2700.542480 2605.845947 2205.371582 2848.416260 2445.085693 1935.598145 1702.756104 2750.519531 1776.915405 1419.350586 1576.339355 2066.303955 2020.163086 2730.666748 2255.574951 1721.065308 1593.237427 2080.768066 1276.544800 2089.124512 2084.937988 2242.206787 2575.208008 2051.028076 1086.562866 2299.191162 2147.335449 2050.017822 1955.609009 1625.599976 2248.263672 2599.335449 2103.911133 2213.583008 2122.149902 1504.532227 2895.988770 1919.527710 1994.983643 1224.701538 2281.543945 2223.042725 2104.975098 2077.651611 2069.386475 2137.409424 2219.485840 1741.228394 1866.159668 1766.356567 1884.753662 2413.884033 2155.119629 1540.168823 2271.580811 1721.065308 1778.434204 1750.015137 2217.120850 1528.852295 2213.583008 2617.318359 1814.095947 2519.089600 1074.222046 1859.488770 1502.359619 2036.973022 2294.121338 354.595764 2055.079590 2364.509033 1619.274658 1117.490845 1972.291992 1549.343262 2059.146973 2091.224121 949.255493 1698.586182 1509.991333 899.986145 1921.300049 1332.117798 2002.664062 1122.312866 1687.565308 1921.300049 1983.572876 2357.810791 914.221436 1898.510986 2340.571533 1937.400391 1247.462891 1846.289307 1784.535156 1725.346558 1449.002808 1726.778442 2311.964355 1942.827271 2088.076172 1872.878540 2240.999512 1831.661987 1784.535156 1815.678833 2184.533447 2660.828613 2468.289551 1849.571533 2069.386475 1266.444336 2600.959961 1930.211548 2635.551514 2306.838135 1388.104126 1212.568726 2269.103516 2010.403809 1224.701538 2513.004883 2279.044922 2032.992676 1541.309570 1896.780273 2063.230469 2054.065186 1852.865479 2179.956055 1996.898315 2226.611084 1372.538208 2224.230957 2226.611084 2262.934082 2355.142090 2304.283447 1950.110596 1847.928955 2331.392822 2755.984131 2809.949951 1625.599976 2406.903320 1888.174194 2422.314209 2000.738403 1856.171265 1596.905640 1404.026978 2051.028076 2301.734619 1884.753662 1686.197754 1959.291870 2133.027100 1664.614380 2326.179932 1914.229980 2108.174316 1778.434204 
conv_39_param_0 1410.690186 1851.217041 1651.403198 1844.652466 1522.141968 1633.255859 1932.003662 2669.362305 1489.454590 1869.513062 2049.008301 1135.790405 2166.338379 1451.023682 2525.203857 1784.535156 889.977783 1459.164062 1362.651001 1688.935059 1711.157837 1514.387207 1767.857300 1718.222900 1895.052856 1722.490112 1583.537231 1799.972290 1962.988647 1437.987549 2000.738403 1352.905029 2191.435547 1612.998413 1157.268066 2609.113525 1137.031738 2107.106934 1480.973633 1818.853149 1721.065308 1675.336548 2840.638916 1195.156860 1763.362671 1303.739380 1589.585938 1852.865479 1491.589966 1742.686768 1817.264648 2054.065186 1972.291992 2539.070068 2066.303955 1732.529541 1491.589966 1647.480591 2098.606201 1226.145020 1452.036255 1541.309570 1946.462158 1823.635376 1343.297607 1669.958252 2101.785889 1704.150757 1818.853149 2371.245605 1803.091797 2133.027100 1921.300049 2091.224121 1493.731567 1258.782837 3514.810791 1914.229980 1569.206665 1950.110596 1901.981689 1581.130737 1793.765503 759.959106 1638.400024 1524.372192 1676.686523 1833.275757 1264.904541 1616.758301 1558.627686 1783.005981 2044.980835 1454.065674 2010.403809 1507.802856 2480.057129 1268.760986 1468.431885 2336.628906 1490.521484 1262.601929 2271.580811 2469.754395 2648.972656 1631.974854 1820.444458 1857.828613 1767.857300 1303.739380 2821.380371 1826.837524 1919.527710 1022.993103 1245.223267 1650.093628 1564.487183 1590.801270 3162.261475 1283.632324 1817.264648 1233.413208 1644.875854 1659.304565 1342.430908 1846.289307 1537.892090 1624.330933 1471.547363 1294.010010 2296.653320 1895.052856 1895.052856 1311.132935 1581.130737 1815.678833 2433.646729 1987.361938 2159.593262 974.142334 1566.843384 1867.834839 1593.237427 2051.028076 1243.734619 2008.463379 944.087097 1841.387573 1810.938232 1903.721924 1237.079712 2267.866943 2116.752686 1512.186035 2058.128662 1624.330933 1536.756226 1577.534546 2124.316406 1113.305542 1944.642944 1761.869629 1905.465210 1955.609009 3922.277100 2022.126343 2480.057129 1968.560059 2356.475586 1825.235107 1884.753662 2719.958252 1321.122559 1839.759521 1486.262817 1786.066895 2173.125732 1914.229980 2022.126343 2061.186768 1933.799316 2018.203735 2139.607178 1403.080200 1905.465210 2037.970581 1512.186035 2327.480957 1435.012451 2177.674561 2399.963135 1536.756226 1962.988647 2200.706543 2123.232666 2145.121582 1584.743286 2628.892090 1910.714478 1342.430908 2669.362305 1924.854736 1838.134277 2078.689209 1151.504150 2499.421143 2056.094971 1525.489746 2331.392822 2397.198242 1951.939941 1314.446045 1352.905029 1807.791504 2308.117676 1939.205933 2016.248047 1886.462402 1449.002808 1457.120483 2405.512207 2100.724854 1261.836304 1292.402466 1515.490112 2487.469238 2718.181641 1671.299561 1874.565796 1928.422607 975.055298 1789.138428 1220.391846 1991.165527 1732.529541 1970.424194 2112.454834 2124.316406 1330.414307 1274.980347 2071.446533 1556.296143 1416.452026 1480.973633 2074.544434 1269.535034 2543.726074 1693.057739 2152.889893 1556.296143 1736.868164 2226.611084 2423.725098 1933.799316 1326.174683 1793.765503 3046.512451 2082.850830 1930.211548 1766.356567 1961.138550 1308.659180 1715.389893 1910.714478 2280.293701 1744.147583 1814.095947 2020.163086 1513.285767 1751.488159 2037.970581 1258.021729 1555.133057 1675.336548 2384.834473 2378.020508 1908.961426 1283.632324 2152.889893 1298.856445 1798.416626 2058.128662 2481.536133 915.830994 2221.855957 1974.163208 1983.572876 1974.163208 1917.758545 1598.132080 1715.389893 1793.765503 1778.434204 1763.362671 2004.593506 1464.298340 1347.647705 1932.003662 1327.867310 1514.387207 2069.386475 1470.507446 2259.248535 1898.510986 1205.543457 2128.662842 1919.527710 3013.422119 1295.621460 2357.810791 1699.973877 2040.969116 717.011719 1324.486328 2567.264648 1565.664429 2245.836914 1708.348145 1332.971191 1502.359619 2412.484619 1665.947144 2117.830078 2310.680664 1799.972290 1886.462402 2723.518311 1773.885742 953.605896 1854.516968 1089.407349 1809.363525 1993.072754 2743.267090 1638.400024 2111.383057 1993.072754 2817.559814 1490.521484 1763.362671 1698.586182 1335.537842 926.432739 1705.547485 1569.206665 1847.928955 1494.804565 2679.675537 1783.005981 1915.992676 2356.475586 1493.731567 2099.665039 1981.683838 1901.981689 1452.036255 1726.778442 1974.163208 2098.606201 961.537903 1773.885742 2056.094971 1907.211792 1646.177246 1893.328491 1502.359619 2169.726807 1981.683838 3004.719238 2256.798340 1872.878540 1951.939941 1693.057739 2605.845947 1525.489746 1679.393066 1699.973877 2016.248047 1948.284668 1728.212646 1182.254517 1915.992676 2478.580078 1695.817383 1404.974976 1368.926270 1877.949463 1654.028564 1536.756226 2194.902832 2295.386719 1536.756226 1772.374756 1590.801270 1382.570068 1810.938232 1569.206665 1537.892090 1037.789551 1454.065674 1748.544556 2379.380127 1695.817383 1987.361938 1462.240356 1682.108276 1471.547363 1888.174194 1928.422607 1874.565796 2039.968628 1659.304565 2579.997559 2287.815186 1382.570068 1238.552368 1568.024170 1565.664429 1836.511963 1725.346558 1579.930176 1493.731567 1255.744141 1501.275635 2981.042969 1420.319458 1822.038574 1248.211182 1784.535156 1790.678101 2365.853271 1708.348145 2881.950195 2076.614746 2091.224121 1478.868530 2020.163086 1939.205933 1544.742432 1839.759521 1849.571533 1503.445068 1470.507446 1723.917114 1825.235107 1867.834839 2147.335449 1872.878540 981.494324 1473.631714 2432.224365 1608.012329 1576.339355 1498.033081 2785.499268 1787.601318 1739.772583 1959.291870 1423.233887 2242.206787 1321.122559 2291.594727 1903.721924 1976.037964 1543.596436 1449.002808 1869.513062 1566.843384 1291.600220 1806.222168 2189.129883 1966.699463 1718.222900 1747.076416 1879.645874 3100.995605 1789.138428 1108.560425 1974.163208 2281.543945 1327.020386 1495.879272 2136.312012 1976.037964 1718.222900 1876.256104 1619.274658 1912.470581 1884.753662 1932.003662 1933.799316 1843.018555 2173.125732 1859.488770 2239.793213 2614.030029 1876.256104 2519.089600 936.439270 2223.042725 1856.171265 1635.823853 2035.976562 1254.986694 2221.855957 1608.012329 1389.958618 2394.439697 1676.686523 1883.047974 1486.262817 1843.018555 
convdw_388_param_0 1195.156860 825.701599 793.580444 1078.118164 1014.019470 2274.063477 1204.148193 802.146484 541.021301 4595.843262 928.085632 1434.023438 859.821472 2442.216064 1148.326660 803.385315 2351.150391 836.994385 1678.038696 1474.676147 984.280029 1507.802856 873.538208 1064.331421 873.538208 896.882751 3637.706299 1202.756104 1071.456177 990.841919 794.792969 1037.272217 869.886292 761.070984 969.602966 665.632751 894.569214 1996.898315 1093.989502 2836.766113 771.798218 794.792969 1664.614380 1544.742432 898.431763 5369.723633 935.597107 943.231201 1424.208130 1705.547485 1141.397705 1659.304565 778.148071 659.723511 684.913757 942.376831 1640.984253 1127.176636 4052.128418 4048.186768 1822.038574 1155.982178 860.532654 5800.050293 859.111450 1101.518311 887.699646 821.139709 1705.547485 859.821472 870.614197 2024.093384 869.886292 880.934814 1757.405396 3500.030273 1355.549194 869.159546 928.914307 1133.933472 859.111450 971.413635 818.555481 1338.114502 939.822937 807.751526 938.128052 984.280029 1022.993103 2220.670166 2382.104248 915.025513 1693.057739 1754.441772 804.006165 1362.651001 1063.243774 1683.469238 2617.318359 1178.237793 1513.285767 3006.890137 2049.008301 1059.993896 2245.836914 802.765442 1003.263245 945.803650 1206.242310 1587.160889 2259.248535 718.001404 955.357239 1419.350586 1508.896362 1116.890991 2712.865723 913.418762 3800.489502 3485.373535 2082.850830 759.959106 985.212097 988.958191 1067.608032 877.961182 1040.904419 1050.892944 980.569275 1154.058838 876.481873 1258.782837 917.446228 1518.808716 833.641052 955.357239 2282.795410 991.786438 729.070801 4048.186768 926.432739 924.785767 1096.872925 3572.133789 1330.414307 878.702698 1684.832397 1603.057007 845.840637 893.800659 1043.514526 2573.615234 899.986145 1306.194580 797.229126 1272.640991 1686.197754 2728.875977 6407.291992 1719.642944 1039.344604 970.507446 1416.452026 1594.458252 2667.651367 1577.534546 751.179810 918.255981 1511.087891 841.734619 958.879272 2024.093384 816.627930 1249.710571 965.105774 829.652283 910.222229 814.071960 988.018982 987.081604 867.709778 1084.863403 956.235291 1059.993896 782.832214 907.839417 848.600342 3011.241699 555.167542 1093.414551 2128.662842 1353.785278 750.096619 2043.976440 945.803650 933.079834 841.054138 1220.391846 1007.148132 1474.676147 1440.975098 868.434082 1272.640991 762.186096 2151.776611 691.744690 893.800659 1231.952637 2138.507812 759.959106 795.400635 940.672668 1473.631714 3302.806396 1526.609009 1070.904785 884.680298 1105.615356 770.654785 1507.802856 708.708435 1256.502441 1401.190552 1106.791504 2695.295410 1104.441650 1485.202026 1028.047485 1374.351440 955.357239 2496.422363 1213.983643 1005.201904 1230.495605 902.327820 1450.012573 928.085632 1025.514038 1148.960815 774.095215 857.694946 925.608521 819.200012 2695.295410 1035.723267 989.899170 872.805359 966.899658 1702.756104 1042.991455 974.142334 1102.101685 848.600342 903.895752 900.765381 1336.395630 1531.102295 853.473328 948.390137 1292.402466 1498.033081 872.805359 872.073792 841.054138 729.070801 2078.689209 1135.170776 846.528870 948.390137 918.255981 951.860962 1119.294189 1047.718018 733.181091 915.025513 791.166565 925.608521 3000.386475 1778.434204 1250.461548 703.437439 920.693787 1577.534546 4274.818848 1332.117798 933.079834 1116.291870 900.765381 761.628113 1034.178955 1032.639160 1408.779907 754.448181 1013.032104 1284.424683 1064.876099 935.597107 828.331238 1110.927979 1799.972290 786.382446 1206.242310 1215.401855 855.578918 945.803650 833.641052 1392.749634 1058.915039 3068.979248 884.680298 908.632324 1006.174072 1624.330933 1799.972290 1016.496338 815.347961 1383.489380 1132.698975 884.680298 821.139709 880.934814 770.084412 1213.983643 1069.253906 1464.298340 1065.967163 1184.947632 712.591797 1822.038574 1140.771973 1944.642944 1572.764893 1888.174194 1251.966309 902.327820 1291.600220 1924.854736 904.681763 929.744385 914.221436 1778.434204 2537.521973 1152.780029 1183.599487 879.445496 1244.478516 1552.811890 2783.636230 771.226074 1667.282104 882.429199 1377.992065 746.865784 867.709778 864.106323 871.343384 1879.645874 889.217102 1127.787476 6343.804688 1288.401245 882.429199 903.895752 929.744385 934.756531 944.087097 840.374817 858.402649 1313.616211 1581.130737 1350.271240 859.111450 3447.834229 864.824585 744.194580 809.007751 1275.762085 916.637878 1767.857300 784.603333 2106.040527 953.605896 869.886292 1370.729858 1668.619141 921.509277 1364.437988 896.882751 974.142334 968.700195 3544.749512 915.025513 928.085632 1750.015137 821.788330 1127.787476 1772.374756 719.491028 1027.032593 1239.290039 933.917419 908.632324 739.434265 880.189514 1957.448730 1027.032593 1439.977905 1020.484558 979.645935 811.531982 874.272278 859.111450 1282.840942 807.124878 2420.905273 1354.666626 1318.610840 1197.909058 890.739746 782.243591 5482.919434 1338.114502 4184.551270 1263.368530 1233.413208 1935.598145 984.280029 1352.026001 1428.118042 1709.751831 2449.403076 932.243713 1326.174683 976.886414 1408.779907 749.556213 854.174072 849.986938 1338.114502 1368.026245 2098.606201 975.969971 912.617554 1052.487549 1284.424683 856.988464 1367.127441 875.744080 841.054138 924.785767 2360.485596 3786.656982 1260.307739 925.608521 1470.507446 989.899170 834.309570 814.709473 1562.138184 1028.555664 1338.975586 809.007751 903.895752 924.785767 1035.723267 788.767273 1571.577026 1275.762085 843.098877 853.473328 1486.262817 1095.141113 946.664246 867.709778 859.821472 1252.720093 1543.596436 1007.148132 945.803650 2732.459717 1667.282104 1034.178955 1673.988770 1596.905640 911.817688 1409.734375 1080.918457 1240.768066 1179.573730 1102.685791 936.439270 812.165466 1344.165405 902.327820 836.321533 810.899475 1121.103394 798.452820 1643.576660 1547.039429 1055.691528 943.231201 922.326233 1201.367188 1630.695923 930.576050 1535.622192 830.314453 1110.335083 854.174072 1099.771729 1563.311768 
